{
  "version": "1.0",
  "truncation": null,
  "padding": null,
  "added_tokens": [
    {
      "id": 0,
      "content": "<s>",
      "single_word": false,
      "lstrip": false,
      "rstrip": false,
      "normalized": true,
      "special": true
    },
    {
      "id": 1,
      "content": "<pad>",
      "single_word": false,
      "lstrip": false,
      "rstrip": false,
      "normalized": true,
      "special": true
    },
    {
      "id": 2,
      "content": "</s>",
      "single_word": false,
      "lstrip": false,
      "rstrip": false,
      "normalized": true,
      "special": true
    },
    {
      "id": 3,
      "content": "<unk>",
      "single_word": false,
      "lstrip": false,
      "rstrip": false,
      "normalized": true,
      "special": true
    },
    {
      "id": 4,
      "content": "<mask>",
      "single_word": false,
      "lstrip": true,
      "rstrip": false,
      "normalized": false,
      "special": true
    }
  ],
  "normalizer": null,
  "pre_tokenizer": {
    "type": "ByteLevel",
    "add_prefix_space": false,
    "trim_offsets": true,
    "use_regex": true
  },
  "post_processor": {
    "type": "RobertaProcessing",
    "sep": [
      "</s>",
      2
    ],
    "cls": [
      "<s>",
      0
    ],
    "trim_offsets": true,
    "add_prefix_space": false
  },
  "decoder": {
    "type": "ByteLevel",
    "add_prefix_space": true,
    "trim_offsets": true,
    "use_regex": true
  },
  "model": {
    "type": "BPE",
    "dropout": null,
    "unk_token": null,
    "continuing_subword_prefix": "",
    "end_of_word_suffix": "",
    "fuse_unk": false,
    "byte_fallback": false,
    "vocab": {
      "<s>": 0,
      "<pad>": 1,
      "</s>": 2,
      "<unk>": 3,
      "<mask>": 4,
      "!": 5,
      "\"": 6,
      "#": 7,
      "$": 8,
      "%": 9,
      "&": 10,
      "'": 11,
      "(": 12,
      ")": 13,
      "*": 14,
      "+": 15,
      ",": 16,
      "-": 17,
      ".": 18,
      "/": 19,
      "0": 20,
      "1": 21,
      "2": 22,
      "3": 23,
      "4": 24,
      "5": 25,
      "6": 26,
      "7": 27,
      "8": 28,
      "9": 29,
      ":": 30,
      ";": 31,
      "<": 32,
      "=": 33,
      ">": 34,
      "?": 35,
      "@": 36,
      "A": 37,
      "B": 38,
      "C": 39,
      "D": 40,
      "E": 41,
      "F": 42,
      "G": 43,
      "H": 44,
      "I": 45,
      "J": 46,
      "K": 47,
      "L": 48,
      "M": 49,
      "N": 50,
      "O": 51,
      "P": 52,
      "Q": 53,
      "R": 54,
      "S": 55,
      "T": 56,
      "U": 57,
      "V": 58,
      "W": 59,
      "X": 60,
      "Y": 61,
      "Z": 62,
      "[": 63,
      "\\": 64,
      "]": 65,
      "^": 66,
      "_": 67,
      "`": 68,
      "a": 69,
      "b": 70,
      "c": 71,
      "d": 72,
      "e": 73,
      "f": 74,
      "g": 75,
      "h": 76,
      "i": 77,
      "j": 78,
      "k": 79,
      "l": 80,
      "m": 81,
      "n": 82,
      "o": 83,
      "p": 84,
      "q": 85,
      "r": 86,
      "s": 87,
      "t": 88,
      "u": 89,
      "v": 90,
      "w": 91,
      "x": 92,
      "y": 93,
      "z": 94,
      "{": 95,
      "|": 96,
      "}": 97,
      "~": 98,
      "¡": 99,
      "¢": 100,
      "£": 101,
      "¤": 102,
      "¥": 103,
      "¦": 104,
      "§": 105,
      "¨": 106,
      "©": 107,
      "ª": 108,
      "«": 109,
      "¬": 110,
      "®": 111,
      "¯": 112,
      "°": 113,
      "±": 114,
      "²": 115,
      "³": 116,
      "´": 117,
      "µ": 118,
      "¶": 119,
      "·": 120,
      "¸": 121,
      "¹": 122,
      "º": 123,
      "»": 124,
      "¼": 125,
      "½": 126,
      "¾": 127,
      "¿": 128,
      "À": 129,
      "Á": 130,
      "Â": 131,
      "Ã": 132,
      "Ä": 133,
      "Å": 134,
      "Æ": 135,
      "Ç": 136,
      "È": 137,
      "É": 138,
      "Ê": 139,
      "Ë": 140,
      "Ì": 141,
      "Í": 142,
      "Î": 143,
      "Ï": 144,
      "Ð": 145,
      "Ñ": 146,
      "Ò": 147,
      "Ó": 148,
      "Ô": 149,
      "Õ": 150,
      "Ö": 151,
      "×": 152,
      "Ø": 153,
      "Ù": 154,
      "Ú": 155,
      "Û": 156,
      "Ü": 157,
      "Ý": 158,
      "Þ": 159,
      "ß": 160,
      "à": 161,
      "á": 162,
      "â": 163,
      "ã": 164,
      "ä": 165,
      "å": 166,
      "æ": 167,
      "ç": 168,
      "è": 169,
      "é": 170,
      "ê": 171,
      "ë": 172,
      "ì": 173,
      "í": 174,
      "î": 175,
      "ï": 176,
      "ð": 177,
      "ñ": 178,
      "ò": 179,
      "ó": 180,
      "ô": 181,
      "õ": 182,
      "ö": 183,
      "÷": 184,
      "ø": 185,
      "ù": 186,
      "ú": 187,
      "û": 188,
      "ü": 189,
      "ý": 190,
      "þ": 191,
      "ÿ": 192,
      "Ā": 193,
      "ā": 194,
      "Ă": 195,
      "ă": 196,
      "Ą": 197,
      "ą": 198,
      "Ć": 199,
      "ć": 200,
      "Ĉ": 201,
      "ĉ": 202,
      "Ċ": 203,
      "ċ": 204,
      "Č": 205,
      "č": 206,
      "Ď": 207,
      "ď": 208,
      "Đ": 209,
      "đ": 210,
      "Ē": 211,
      "ē": 212,
      "Ĕ": 213,
      "ĕ": 214,
      "Ė": 215,
      "ė": 216,
      "Ę": 217,
      "ę": 218,
      "Ě": 219,
      "ě": 220,
      "Ĝ": 221,
      "ĝ": 222,
      "Ğ": 223,
      "ğ": 224,
      "Ġ": 225,
      "ġ": 226,
      "Ģ": 227,
      "ģ": 228,
      "Ĥ": 229,
      "ĥ": 230,
      "Ħ": 231,
      "ħ": 232,
      "Ĩ": 233,
      "ĩ": 234,
      "Ī": 235,
      "ī": 236,
      "Ĭ": 237,
      "ĭ": 238,
      "Į": 239,
      "į": 240,
      "İ": 241,
      "ı": 242,
      "Ĳ": 243,
      "ĳ": 244,
      "Ĵ": 245,
      "ĵ": 246,
      "Ķ": 247,
      "ķ": 248,
      "ĸ": 249,
      "Ĺ": 250,
      "ĺ": 251,
      "Ļ": 252,
      "ļ": 253,
      "Ľ": 254,
      "ľ": 255,
      "Ŀ": 256,
      "ŀ": 257,
      "Ł": 258,
      "ł": 259,
      "Ń": 260,
      "22": 261,
      "re": 262,
      "Ġ/": 263,
      "on": 264,
      "ET": 265,
      "GET": 266,
      "20": 267,
      "te": 268,
      "se": 269,
      "¿½": 270,
      "ï¿½": 271,
      "Ġ1": 272,
      "in": 273,
      "AA": 274,
      "am": 275,
      "le": 276,
      "ro": 277,
      "st": 278,
      "ï¿½ï¿½": 279,
      "ti": 280,
      "amp": 281,
      "en": 282,
      "co": 283,
      "ref": 284,
      "er": 285,
      "ge": 286,
      "00": 287,
      "al": 288,
      "66": 289,
      "or": 290,
      "an": 291,
      "ht": 292,
      "at": 293,
      "ar": 294,
      "con": 295,
      "ww": 296,
      "17": 297,
      "id": 298,
      "29": 299,
      "28": 300,
      "25": 301,
      "ss": 302,
      "80": 303,
      "lo": 304,
      "tp": 305,
      "$%": 306,
      "ad": 307,
      "10": 308,
      "age": 309,
      "js": 310,
      "..": 311,
      "23": 312,
      "pg": 313,
      "com": 314,
      "27": 315,
      "19": 316,
      "http": 317,
      "he": 318,
      "16": 319,
      "de": 320,
      "di": 321,
      "ul": 322,
      "24": 323,
      ":/": 324,
      "ce": 325,
      "li": 326,
      "OM": 327,
      "to": 328,
      "ct": 329,
      ":-": 330,
      "30": 331,
      "OS": 332,
      "ï¿½ï¿½ï¿½ï¿½": 333,
      "me": 334,
      "nt": 335,
      "://": 336,
      "pro": 337,
      "ff": 338,
      "15": 339,
      "ne": 340,
      "wp": 341,
      "ROM": 342,
      "https": 343,
      "26": 344,
      "AAAA": 345,
      "ty": 346,
      "ri": 347,
      "13": 348,
      "ac": 349,
      "row": 350,
      "ho": 351,
      "\":": 352,
      "POS": 353,
      "14": 354,
      "im": 355,
      "brow": 356,
      "browse": 357,
      "il": 358,
      "as": 359,
      "pl": 360,
      "ab": 361,
      "ur": 362,
      "tion": 363,
      "conte": 364,
      "18": 365,
      "tr": 366,
      "Ġ0": 367,
      "99": 368,
      "oo": 369,
      "ate": 370,
      "si": 371,
      "ap": 372,
      "up": 373,
      "www": 374,
      "po": 375,
      "40": 376,
      "TI": 377,
      "Ġ×": 378,
      "fi": 379,
      "vi": 380,
      "FROM": 381,
      "90": 382,
      ",\"": 383,
      "</": 384,
      "ON": 385,
      "sc": 386,
      "ut": 387,
      "res": 388,
      "du": 389,
      "POST": 390,
      "RE": 391,
      "ue": 392,
      "ult": 393,
      "ch": 394,
      "50": 395,
      "pt": 396,
      "73": 397,
      "166": 398,
      "11": 399,
      "60": 400,
      "page": 401,
      "43": 402,
      "Ġhttps": 403,
      "ent": 404,
      "../": 405,
      "47": 406,
      "content": 407,
      "95": 408,
      "do": 409,
      "ing": 410,
      "63": 411,
      "pe": 412,
      "ag": 413,
      "fal": 414,
      "false": 415,
      "result": 416,
      "Ġ2": 417,
      "98": 418,
      "sn": 419,
      "77": 420,
      "45": 421,
      "AB": 422,
      "cat": 423,
      "48": 424,
      "\":\"": 425,
      "93": 426,
      "and": 427,
      "46": 428,
      "mo": 429,
      "eb": 430,
      "Ġ166": 431,
      "ub": 432,
      "un": 433,
      "ed": 434,
      "th": 435,
      "96": 436,
      "tem": 437,
      "set": 438,
      "Ġ<": 439,
      "us": 440,
      "Ġon": 441,
      "jpg": 442,
      "ph": 443,
      "ck": 444,
      "es": 445,
      "=\"": 446,
      "__": 447,
      "12": 448,
      "sz": 449,
      "33": 450,
      "×Ļ": 451,
      "ver": 452,
      "AE": 453,
      "duct": 454,
      "05": 455,
      "\",\"": 456,
      "et": 457,
      "ma": 458,
      "35": 459,
      "=%": 460,
      "Ġ19": 461,
      "75": 462,
      "SE": 463,
      "ID": 464,
      "../../": 465,
      "ay": 466,
      "ug": 467,
      "Ġ3": 468,
      "65": 469,
      "78": 470,
      "product": 471,
      "sh": 472,
      "enti": 473,
      "ws": 474,
      "AC": 475,
      "md": 476,
      "68": 477,
      "fr": 478,
      "gi": 479,
      "tm": 480,
      "38": 481,
      "rm": 482,
      "CT": 483,
      "ca": 484,
      "Ġ1920": 485,
      "entity": 486,
      "TION": 487,
      "xt": 488,
      "um": 489,
      "image": 490,
      "pgsz": 491,
      "Ġ10": 492,
      "posn": 493,
      "log": 494,
      "cl": 495,
      "net": 496,
      "TE": 497,
      "44": 498,
      "70": 499,
      "list": 500,
      "so": 501,
      "fa": 502,
      "ser": 503,
      "×ķ": 504,
      "sy": 505,
      "ER": 506,
      "pn": 507,
      "load": 508,
      "sty": 509,
      "21": 510,
      "IE": 511,
      "rt": 512,
      "--": 513,
      "IN": 514,
      "it": 515,
      "style": 516,
      "ml": 517,
      "EN": 518,
      "ew": 519,
      "94": 520,
      "ko": 521,
      "able": 522,
      "av": 523,
      "TY": 524,
      "88": 525,
      "IS": 526,
      "item": 527,
      "ame": 528,
      "97": 529,
      "×Ļ×": 530,
      "PL": 531,
      "36": 532,
      "57": 533,
      "ata": 534,
      "×ķ×": 535,
      "fo": 536,
      "ript": 537,
      "PE": 538,
      "ale": 539,
      "ter": 540,
      "for": 541,
      "au": 542,
      "be": 543,
      "37": 544,
      "Ġfalse": 545,
      "></": 546,
      ")\"": 547,
      "CA": 548,
      ")%": 549,
      "ev": 550,
      "ation": 551,
      "test": 552,
      "min": 553,
      "ory": 554,
      "tic": 555,
      "DI": 556,
      "ta": 557,
      "58": 558,
      "ig": 559,
      "sr": 560,
      "ï¿½ï¿½ï¿½ï¿½ï¿½ï¿½ï¿½ï¿½": 561,
      "ke": 562,
      "om": 563,
      "og": 564,
      "get": 565,
      "ic": 566,
      "FF": 567,
      "34": 568,
      "data": 569,
      "fb": 570,
      "Bs": 571,
      "91": 572,
      "01": 573,
      "FO": 574,
      "true": 575,
      "08": 576,
      "no": 577,
      "64": 578,
      "ld": 579,
      "upload": 580,
      "SC": 581,
      "Ty": 582,
      "dr": 583,
      "gear": 584,
      "netgear": 585,
      "ec": 586,
      "BB": 587,
      "67": 588,
      "55": 589,
      "cf": 590,
      "css": 591,
      "AR": 592,
      "ve": 593,
      "script": 594,
      "php": 595,
      "An": 596,
      "wi": 597,
      "op": 598,
      "cate": 599,
      "gle": 600,
      "ee": 601,
      "fl": 602,
      "02": 603,
      "Ag": 604,
      "cd": 605,
      "confi": 606,
      "oogle": 607,
      "uploads": 608,
      "Ch": 609,
      "41": 610,
      "32": 611,
      "pa": 612,
      "sion": 613,
      "gory": 614,
      "AQ": 615,
      "af": 616,
      "92": 617,
      "ins": 618,
      "AD": 619,
      "pr": 620,
      "53": 621,
      "mb": 622,
      "MT": 623,
      "52": 624,
      "/.": 625,
      "cb": 626,
      "sv": 627,
      "AI": 628,
      "web": 629,
      "ae": 630,
      "category": 631,
      "qu": 632,
      "/%": 633,
      "nd": 634,
      "ki": 635,
      "cre": 636,
      "fy": 637,
      "AAAAAAAA": 638,
      "Ġ5": 639,
      "sec": 640,
      "AY": 641,
      "images": 642,
      "09": 643,
      "dc": 644,
      "ĠG": 645,
      "aa": 646,
      "IL": 647,
      "col": 648,
      "ull": 649,
      "bo": 650,
      "the": 651,
      "pi": 652,
      "03": 653,
      "US": 654,
      "Mo": 655,
      "AG": 656,
      "hC": 657,
      "49": 658,
      "dt": 659,
      "UA": 660,
      "83": 661,
      "el": 662,
      "wg": 663,
      "sess": 664,
      "CI": 665,
      "ts": 666,
      "56": 667,
      "dn": 668,
      "fe": 669,
      "MD": 670,
      "><": 671,
      "sp": 672,
      "sta": 673,
      "59": 674,
      "bQ": 675,
      "AK": 676,
      "In": 677,
      "ï¿½%": 678,
      "ex": 679,
      "31": 680,
      "AS": 681,
      "eo": 682,
      "png": 683,
      "gB": 684,
      "AF": 685,
      "tid": 686,
      "nl": 687,
      "AL": 688,
      "cur": 689,
      "ol": 690,
      "plug": 691,
      "Ġ//": 692,
      "bb": 693,
      "42": 694,
      ".%": 695,
      "ated": 696,
      "BQ": 697,
      "UN": 698,
      "-%": 699,
      "51": 700,
      "ack": 701,
      "86": 702,
      "OD": 703,
      "tmp": 704,
      "app": 705,
      "mi": 706,
      "type": 707,
      "mK": 708,
      "39": 709,
      "sk": 710,
      "cy": 711,
      "alert": 712,
      "06": 713,
      "view": 714,
      "zi": 715,
      "AN": 716,
      "asset": 717,
      "54": 718,
      "art": 719,
      "{\"": 720,
      "71": 721,
      "rf": 722,
      "etc": 723,
      "2022": 724,
      "Ġ24": 725,
      "br": 726,
      "VIE": 727,
      "sO": 728,
      "VIEW": 729,
      "plugins": 730,
      "CH": 731,
      "76": 732,
      "TF": 733,
      "+/": 734,
      "by": 735,
      "file": 736,
      "74": 737,
      "+-": 738,
      "ffff": 739,
      "OTE": 740,
      "RER": 741,
      "ds": 742,
      "name": 743,
      "SEC": 744,
      "REF": 745,
      "AM": 746,
      "koi": 747,
      "static": 748,
      "assets": 749,
      "AP": 750,
      "TID": 751,
      "TYPE": 752,
      "pre": 753,
      "event": 754,
      "CJ": 755,
      "created": 756,
      "ITION": 757,
      "POSITION": 758,
      "SECTION": 759,
      "000": 760,
      "ERRER": 761,
      "REFERRER": 762,
      "jn": 763,
      "pgsess": 764,
      "cmd": 765,
      "PROM": 766,
      "OTED": 767,
      "PROMOTED": 768,
      "user": 769,
      "qf": 770,
      "CB": 771,
      "version": 772,
      "dd": 773,
      "is": 774,
      "Aw": 775,
      "dex": 776,
      "Mz": 777,
      "Ġ9": 778,
      "medi": 779,
      "'%": 780,
      "go": 781,
      "84": 782,
      "ubcat": 783,
      "*?": 784,
      "07": 785,
      "ment": 786,
      "Bsubcat": 787,
      "out": 788,
      "ZW": 789,
      "/$%": 790,
      "Ġ-": 791,
      "INFO": 792,
      "pb": 793,
      "NE": 794,
      "dit": 795,
      "html": 796,
      "IF": 797,
      "YW": 798,
      "LE": 799,
      "ba": 800,
      "cs": 801,
      "201": 802,
      "*?*?": 803,
      "DICT": 804,
      "ir": 805,
      "Lj": 806,
      "85": 807,
      "Afalse": 808,
      "bu": 809,
      "comm": 810,
      "79": 811,
      "os": 812,
      "ĠS": 813,
      "confirm": 814,
      "bd": 815,
      "EF": 816,
      "end": 817,
      "index": 818,
      "Ġ1080": 819,
      "lect": 820,
      "Ij": 821,
      "mpt": 822,
      "fc": 823,
      "vb": 824,
      "Ac": 825,
      "Im": 826,
      "Nj": 827,
      "04": 828,
      "prompt": 829,
      "CQ": 830,
      "ci": 831,
      "low": 832,
      "aW": 833,
      "je": 834,
      "87": 835,
      "89": 836,
      "wd": 837,
      "Ii": 838,
      ")\">": 839,
      "Ah": 840,
      "Vi": 841,
      "uv": 842,
      "RJ": 843,
      "AJ": 844,
      "81": 845,
      "ps": 846,
      "form": 847,
      "fd": 848,
      "Da": 849,
      "Mj": 850,
      "lin": 851,
      "la": 852,
      "hp": 853,
      "ĠC": 854,
      "Ġ4": 855,
      "Au": 856,
      "bi": 857,
      "ky": 858,
      "CF": 859,
      "Eg": 860,
      "ZX": 861,
      "px": 862,
      "ft": 863,
      "bn": 864,
      "Ax": 865,
      "SI": 866,
      "MC": 867,
      "all": 868,
      "sm": 869,
      "drag": 870,
      "HJ": 871,
      "wa": 872,
      "69": 873,
      "YB": 874,
      "TM": 875,
      "news": 876,
      ":$%": 877,
      "1660": 878,
      "uk": 879,
      "wn": 880,
      "json": 881,
      "82": 882,
      "yJ": 883,
      "cm": 884,
      "vid": 885,
      "dm": 886,
      "../../../../": 887,
      "CE": 888,
      "ls": 889,
      "media": 890,
      "Id": 891,
      "cc": 892,
      "oa": 893,
      "Bh": 894,
      "AU": 895,
      "bg": 896,
      "mes": 897,
      "ath": 898,
      "×¨": 899,
      "DQ": 900,
      "ces": 901,
      "mZ": 902,
      "pp": 903,
      "kt": 904,
      "RR": 905,
      "hi": 906,
      "Cg": 907,
      "ud": 908,
      "61": 909,
      "ax": 910,
      "sl": 911,
      "hb": 912,
      "my": 913,
      "iL": 914,
      "QU": 915,
      "My": 916,
      "Ġ1660": 917,
      "zL": 918,
      "BE": 919,
      "AO": 920,
      "WU": 921,
      "ks": 922,
      "ni": 923,
      "Re": 924,
      "da": 925,
      "-_": 926,
      "ry": 927,
      "df": 928,
      "per": 929,
      "Sy": 930,
      "AV": 931,
      "auto": 932,
      "bl": 933,
      "Ġid": 934,
      "IQ": 935,
      "72": 936,
      "62": 937,
      "za": 938,
      "gE": 939,
      "ui": 940,
      "sho": 941,
      "svg": 942,
      "tran": 943,
      "nte": 944,
      "Zm": 945,
      "win": 946,
      "jw": 947,
      "gAAAA": 948,
      "St": 949,
      "ea": 950,
      "uF": 951,
      "Og": 952,
      "onte": 953,
      "ll": 954,
      "OR": 955,
      "AT": 956,
      "KJ": 957,
      "HE": 958,
      "Ġconte": 959,
      "ditable": 960,
      "nteditable": 961,
      "Ġcontenteditable": 962,
      "GF": 963,
      "cess": 964,
      "sw": 965,
      "Oj": 966,
      "Si": 967,
      "GB": 968,
      "Om": 969,
      "QQ": 970,
      "use": 971,
      "ŀ×": 972,
      "AH": 973,
      "TU": 974,
      "VF": 975,
      "cr": 976,
      "aw": 977,
      "Nl": 978,
      "DE": 979,
      "py": 980,
      "Mi": 981,
      "No": 982,
      "Oi": 983,
      "Ro": 984,
      "bc": 985,
      "Ġ|": 986,
      "ak": 987,
      "CC": 988,
      "pf": 989,
      "MS": 990,
      "GZ": 991,
      "Uy": 992,
      "pc": 993,
      "url": 994,
      "ly": 995,
      "video": 996,
      "Ex": 997,
      "REEN": 998,
      "TJ": 999,
      "chr": 1000,
      "bf": 1001,
      "GV": 1002,
      "ude": 1003,
      "AZ": 1004,
      "cB": 1005,
      "Co": 1006,
      "mar": 1007,
      "SCREEN": 1008,
      "ze": 1009,
      "cu": 1010,
      "ai": 1011,
      "boo": 1012,
      "Ym": 1013,
      "Gg": 1014,
      "cC": 1015,
      "ĠP": 1016,
      "pagead": 1017,
      "HM": 1018,
      "ow": 1019,
      "dl": 1020,
      ".\\": 1021,
      "ĠGoogle": 1022,
      "gr": 1023,
      "dy": 1024,
      "Anull": 1025,
      "pv": 1026,
      "YX": 1027,
      "lower": 1028,
      "ren": 1029,
      "ache": 1030,
      "SS": 1031,
      "Nz": 1032,
      "Ig": 1033,
      "FB": 1034,
      "NT": 1035,
      "hCsO": 1036,
      "mKTy": 1037,
      "bQhCsO": 1038,
      "ĠGooglemKTy": 1039,
      "ĠGooglemKTybQhCsO": 1040,
      "LT": 1041,
      "we": 1042,
      "nc": 1043,
      "Az": 1044,
      "Gl": 1045,
      "Ho": 1046,
      "MB": 1047,
      "Fi": 1048,
      "Ai": 1049,
      "xw": 1050,
      "db": 1051,
      "Wl": 1052,
      "fs": 1053,
      "Blower": 1054,
      "XB": 1055,
      "rent": 1056,
      "IV": 1057,
      "Ny": 1058,
      "tit": 1059,
      "Tb": 1060,
      "clude": 1061,
      "WS": 1062,
      "304": 1063,
      "google": 1064,
      "gt": 1065,
      "GR": 1066,
      "ef": 1067,
      "heck": 1068,
      "Il": 1069,
      "Ġ1040": 1070,
      "Is": 1071,
      "253": 1072,
      "\"}": 1073,
      "wv": 1074,
      "AX": 1075,
      "Ay": 1076,
      "gAAAAAB": 1077,
      "GH": 1078,
      "gif": 1079,
      "arch": 1080,
      "WF": 1081,
      "CM": 1082,
      "×ľ": 1083,
      "path": 1084,
      "PR": 1085,
      "KQ": 1086,
      "cgi": 1087,
      "=/": 1088,
      "az": 1089,
      "OT": 1090,
      "De": 1091,
      "uZ": 1092,
      "CN": 1093,
      "nQ": 1094,
      "uc": 1095,
      "WE": 1096,
      "next": 1097,
      "Yz": 1098,
      "CG": 1099,
      "wo": 1100,
      "Li": 1101,
      "Cj": 1102,
      "Ġt": 1103,
      "VV": 1104,
      "Av": 1105,
      "LB": 1106,
      "UF": 1107,
      "themes": 1108,
      "ting": 1109,
      "play": 1110,
      "htm": 1111,
      "ord": 1112,
      "Ad": 1113,
      "ĠON": 1114,
      "jh": 1115,
      "300": 1116,
      "UE": 1117,
      "ZS": 1118,
      "DS": 1119,
      ".\\.\\": 1120,
      "IB": 1121,
      "XR": 1122,
      "LL": 1123,
      "ka": 1124,
      "ery": 1125,
      "YQ": 1126,
      "unt": 1127,
      "ME": 1128,
      "gd": 1129,
      "AW": 1130,
      "Ġevent": 1131,
      "src": 1132,
      "gn": 1133,
      "HV": 1134,
      "red": 1135,
      "200": 1136,
      "UR": 1137,
      "HR": 1138,
      "Fk": 1139,
      "MR": 1140,
      "xy": 1141,
      "rd": 1142,
      "MG": 1143,
      "pu": 1144,
      "ND": 1145,
      "Ġen": 1146,
      "×Ķ": 1147,
      "/*": 1148,
      "./.": 1149,
      "IP": 1150,
      "Mk": 1151,
      "Mozi": 1152,
      "sd": 1153,
      "MP": 1154,
      "mV": 1155,
      "Zj": 1156,
      "sole": 1157,
      "pd": 1158,
      "HB": 1159,
      "hy": 1160,
      "ix": 1161,
      "WQ": 1162,
      "880": 1163,
      "NF": 1164,
      "OU": 1165,
      "EV": 1166,
      "NS": 1167,
      "100": 1168,
      "vo": 1169,
      "cchr": 1170,
      "console": 1171,
      "ini": 1172,
      "rb": 1173,
      "xx": 1174,
      "Ne": 1175,
      "UJ": 1176,
      "Aj": 1177,
      "gy": 1178,
      "UK": 1179,
      "GQ": 1180,
      "ob": 1181,
      ")></": 1182,
      "title": 1183,
      "our": 1184,
      "DB": 1185,
      "cn": 1186,
      "zz": 1187,
      "Ci": 1188,
      "At": 1189,
      "Pl": 1190,
      "Ġ/?": 1191,
      "wE": 1192,
      "of": 1193,
      "YS": 1194,
      "ers": 1195,
      "Vl": 1196,
      "gb": 1197,
      "pub": 1198,
      "key": 1199,
      "CL": 1200,
      "Ġ6": 1201,
      "home": 1202,
      "fault": 1203,
      "IK": 1204,
      "FR": 1205,
      "Gx": 1206,
      "omen": 1207,
      "ns": 1208,
      "top": 1209,
      "uy": 1210,
      "wQ": 1211,
      "CR": 1212,
      "stem": 1213,
      "Ar": 1214,
      "pq": 1215,
      "OQ": 1216,
      "Ġtrue": 1217,
      "wget": 1218,
      "setup": 1219,
      "WV": 1220,
      "Ik": 1221,
      "GU": 1222,
      "Iy": 1223,
      "vt": 1224,
      "hq": 1225,
      "img": 1226,
      "GJ": 1227,
      "NJ": 1228,
      "CP": 1229,
      "Ġ1663": 1230,
      "193": 1231,
      "_-": 1232,
      "Lo": 1233,
      "Hy": 1234,
      "Ft": 1235,
      "Te": 1236,
      "MQ": 1237,
      "As": 1238,
      "XQ": 1239,
      "ort": 1240,
      "ZZ": 1241,
      "HP": 1242,
      "wB": 1243,
      "OJ": 1244,
      "Ux": 1245,
      "wy": 1246,
      "gQ": 1247,
      "NB": 1248,
      "XS": 1249,
      "Am": 1250,
      "qq": 1251,
      "uff": 1252,
      "WJ": 1253,
      "current": 1254,
      "jQ": 1255,
      "CK": 1256,
      "servi": 1257,
      "jav": 1258,
      "×Ļ×Ŀ": 1259,
      "WD": 1260,
      "jndi": 1261,
      "1080": 1262,
      "NQ": 1263,
      "LD": 1264,
      "gP": 1265,
      "hoto": 1266,
      "Ly": 1267,
      "heckout": 1268,
      "query": 1269,
      "UQ": 1270,
      "hl": 1271,
      "setting": 1272,
      "hd": 1273,
      "WY": 1274,
      "count": 1275,
      "Cl": 1276,
      "anim": 1277,
      "Mw": 1278,
      "hx": 1279,
      "kp": 1280,
      "host": 1281,
      "Nv": 1282,
      "ames": 1283,
      "VQ": 1284,
      "XJ": 1285,
      "ffffff": 1286,
      "ms": 1287,
      "Zl": 1288,
      "kQ": 1289,
      "TH": 1290,
      "Ġwww": 1291,
      "Ni": 1292,
      "CD": 1293,
      "OP": 1294,
      "OE": 1295,
      "Tr": 1296,
      "))": 1297,
      "Zy": 1298,
      "kB": 1299,
      "GP": 1300,
      "MJ": 1301,
      "Aq": 1302,
      "site": 1303,
      "Me": 1304,
      "Mm": 1305,
      "/./.": 1306,
      "kl": 1307,
      "gK": 1308,
      "Se": 1309,
      "Ġffffff": 1310,
      "ZD": 1311,
      "kr": 1312,
      "dows": 1313,
      "Uz": 1314,
      "hr": 1315,
      "Ġ7": 1316,
      "pass": 1317,
      "ance": 1318,
      "LQ": 1319,
      "XV": 1320,
      "WH": 1321,
      "Xq": 1322,
      "Ew": 1323,
      "cfg": 1324,
      "animation": 1325,
      "fu": 1326,
      "UP": 1327,
      "RQ": 1328,
      "IY": 1329,
      "KY": 1330,
      "ZY": 1331,
      "LF": 1332,
      "CS": 1333,
      "fS": 1334,
      "gu": 1335,
      "TV": 1336,
      "IJ": 1337,
      "todo": 1338,
      "ox": 1339,
      "0000": 1340,
      "ZQ": 1341,
      "fz": 1342,
      "TR": 1343,
      "=/&": 1344,
      "sysc": 1345,
      "kV": 1346,
      "OV": 1347,
      "jb": 1348,
      "curpath": 1349,
      "currentsetting": 1350,
      "syscmd": 1351,
      "Ur": 1352,
      "Fy": 1353,
      "ion": 1354,
      "wx": 1355,
      "Al": 1356,
      "GW": 1357,
      "cp": 1358,
      "Aa": 1359,
      "UB": 1360,
      "ZJ": 1361,
      "HQ": 1362,
      "DJ": 1363,
      "gl": 1364,
      "kx": 1365,
      "hB": 1366,
      "va": 1367,
      "Iz": 1368,
      "UV": 1369,
      "ey": 1370,
      "ontend": 1371,
      "ZV": 1372,
      "acti": 1373,
      "GY": 1374,
      "LR": 1375,
      "ZR": 1376,
      "Fwww": 1377,
      "NW": 1378,
      "kJ": 1379,
      "Ob": 1380,
      "alog": 1381,
      "dz": 1382,
      "fx": 1383,
      "GK": 1384,
      "jJ": 1385,
      "/?": 1386,
      "FQ": 1387,
      "rom": 1388,
      "sb": 1389,
      "GD": 1390,
      "NR": 1391,
      "wJ": 1392,
      "Oy": 1393,
      "XY": 1394,
      "143": 1395,
      "OW": 1396,
      "Mx": 1397,
      "kv": 1398,
      "api": 1399,
      "frontend": 1400,
      "qz": 1401,
      "GE": 1402,
      "MK": 1403,
      "Tl": 1404,
      "252": 1405,
      "ou": 1406,
      "jS": 1407,
      "kb": 1408,
      "NV": 1409,
      "na": 1410,
      "gD": 1411,
      "search": 1412,
      "FP": 1413,
      "TQ": 1414,
      "wD": 1415,
      "put": 1416,
      "include": 1417,
      "443": 1418,
      "Ae": 1419,
      "Xz": 1420,
      "dY": 1421,
      "str": 1422,
      "TB": 1423,
      "HK": 1424,
      "Ui": 1425,
      "NK": 1426,
      "cz": 1427,
      "To": 1428,
      "mR": 1429,
      "IR": 1430,
      "kie": 1431,
      "hv": 1432,
      "cache": 1433,
      "kK": 1434,
      "Ml": 1435,
      "press": 1436,
      "pQ": 1437,
      "mQ": 1438,
      "OK": 1439,
      "cus": 1440,
      "photo": 1441,
      "pB": 1442,
      "=&": 1443,
      "Ao": 1444,
      "CY": 1445,
      "It": 1446,
      "Lz": 1447,
      "Cs": 1448,
      "MV": 1449,
      "kz": 1450,
      "line": 1451,
      "MF": 1452,
      "xl": 1453,
      "qy": 1454,
      "1663": 1455,
      "Mn": 1456,
      "ard": 1457,
      "ql": 1458,
      "CV": 1459,
      "cli": 1460,
      "165": 1461,
      "*?*?*?*?": 1462,
      "jy": 1463,
      "UD": 1464,
      "Hl": 1465,
      "WB": 1466,
      "Oz": 1467,
      "collect": 1468,
      "ĠU": 1469,
      "ction": 1470,
      "HY": 1471,
      "qQ": 1472,
      "Or": 1473,
      "pz": 1474,
      "uR": 1475,
      "qE": 1476,
      "ï¿½^": 1477,
      "jquery": 1478,
      "Sz": 1479,
      "AAAAAAAAAAAAAAAA": 1480,
      "Ul": 1481,
      "qJ": 1482,
      "OB": 1483,
      "hJ": 1484,
      "Zz": 1485,
      "sa": 1486,
      "Ti": 1487,
      "cQ": 1488,
      "Wi": 1489,
      "Gv": 1490,
      "mx": 1491,
      "LJ": 1492,
      "ZB": 1493,
      "Gy": 1494,
      "NP": 1495,
      "ZF": 1496,
      "fV": 1497,
      "jg": 1498,
      "ZE": 1499,
      "qt": 1500,
      "jY": 1501,
      "LY": 1502,
      "OF": 1503,
      "cS": 1504,
      "Xb": 1505,
      "qx": 1506,
      "dB": 1507,
      "On": 1508,
      "uQ": 1509,
      "Ge": 1510,
      "coo": 1511,
      "Zx": 1512,
      "qV": 1513,
      "from": 1514,
      "qr": 1515,
      "//": 1516,
      "WR": 1517,
      "Ib": 1518,
      "LK": 1519,
      "\\..": 1520,
      "hs": 1521,
      "Io": 1522,
      "wr": 1523,
      "Xx": 1524,
      "Xy": 1525,
      "fQ": 1526,
      "Ix": 1527,
      "sition": 1528,
      "mouse": 1529,
      "/*;": 1530,
      "ZK": 1531,
      "system": 1532,
      "MY": 1533,
      "time": 1534,
      "Wy": 1535,
      "PQ": 1536,
      "NU": 1537,
      "Ġtab": 1538,
      "focus": 1539,
      "uK": 1540,
      "Mt": 1541,
      "jo": 1542,
      "Bjndi": 1543,
      "HU": 1544,
      "hQ": 1545,
      "mn": 1546,
      "Cy": 1547,
      "Xl": 1548,
      "kd": 1549,
      "Ġtabindex": 1550,
      "mY": 1551,
      "ass": 1552,
      "Ġ16605": 1553,
      "186": 1554,
      "TS": 1555,
      "Gi": 1556,
      "hz": 1557,
      "uJ": 1558,
      "OY": 1559,
      "GS": 1560,
      "NY": 1561,
      "Fz": 1562,
      "org": 1563,
      "und": 1564,
      "Ol": 1565,
      "____": 1566,
      "TP": 1567,
      "vd": 1568,
      "×©": 1569,
      "gz": 1570,
      "2216": 1571,
      "kn": 1572,
      "Cz": 1573,
      "mp": 1574,
      "ga": 1575,
      "uP": 1576,
      "alth": 1577,
      "HD": 1578,
      "Ln": 1579,
      "kP": 1580,
      "Cw": 1581,
      "EB": 1582,
      "Ey": 1583,
      "gJ": 1584,
      "sf": 1585,
      "LV": 1586,
      "vy": 1587,
      "Cx": 1588,
      "qn": 1589,
      "jl": 1590,
      "ZP": 1591,
      "Gd": 1592,
      "oob": 1593,
      "Af": 1594,
      "EP": 1595,
      "wid": 1596,
      "XK": 1597,
      "one": 1598,
      "Hx": 1599,
      "jV": 1600,
      "ux": 1601,
      "Wx": 1602,
      "Ox": 1603,
      "XP": 1604,
      "hY": 1605,
      "--%": 1606,
      "Ġj": 1607,
      "Gz": 1608,
      "969": 1609,
      "includes": 1610,
      "HS": 1611,
      "kY": 1612,
      "Fw": 1613,
      "uY": 1614,
      "passwd": 1615,
      "rz": 1616,
      "MU": 1617,
      "tc": 1618,
      "Wz": 1619,
      "jx": 1620,
      "qK": 1621,
      "198": 1622,
      "vl": 1623,
      "Zi": 1624,
      "jz": 1625,
      "TK": 1626,
      "WP": 1627,
      "Tz": 1628,
      "kf": 1629,
      "ji": 1630,
      "ha": 1631,
      "${": 1632,
      "tt": 1633,
      "Ġ[": 1634,
      "XF": 1635,
      "DR": 1636,
      "uf": 1637,
      "244": 1638,
      "products": 1639,
      "WK": 1640,
      "mc": 1641,
      "mJ": 1642,
      "kR": 1643,
      "Tx": 1644,
      "gx": 1645,
      "ght": 1646,
      "uz": 1647,
      "gw": 1648,
      "pY": 1649,
      "Ev": 1650,
      "health": 1651,
      "jB": 1652,
      "Nn": 1653,
      "qB": 1654,
      "cookie": 1655,
      "pJ": 1656,
      "Nx": 1657,
      "Ca": 1658,
      "main": 1659,
      "Gr": 1660,
      "16605": 1661,
      "Ab": 1662,
      "ZU": 1663,
      "CU": 1664,
      "login": 1665,
      "Xn": 1666,
      "Cv": 1667,
      "Nt": 1668,
      "default": 1669,
      "Hz": 1670,
      "Di": 1671,
      "hR": 1672,
      "wb": 1673,
      "Cr": 1674,
      "LS": 1675,
      "He": 1676,
      "cx": 1677,
      "hn": 1678,
      "map": 1679,
      "Zr": 1680,
      "mt": 1681,
      "Hn": 1682,
      "od": 1683,
      "Xv": 1684,
      "DV": 1685,
      "×Ĳ": 1686,
      "DY": 1687,
      "oe": 1688,
      "hS": 1689,
      "mE": 1690,
      "hK": 1691,
      "Ġ8": 1692,
      "conta": 1693,
      "Ġonmouse": 1694,
      "Cb": 1695,
      "Ma": 1696,
      "ja": 1697,
      "Lx": 1698,
      "qb": 1699,
      "kS": 1700,
      "pV": 1701,
      "FJ": 1702,
      "oi": 1703,
      "frames": 1704,
      "qY": 1705,
      "Zn": 1706,
      "qv": 1707,
      "jv": 1708,
      "Fx": 1709,
      "Nr": 1710,
      "Fa": 1711,
      "Tn": 1712,
      "jR": 1713,
      "Ov": 1714,
      "mB": 1715,
      "Ġe": 1716,
      "LP": 1717,
      "Ct": 1718,
      "wR": 1719,
      "×ł": 1720,
      "uest": 1721,
      "Xi": 1722,
      "Ir": 1723,
      "fn": 1724,
      "dist": 1725,
      "Fr": 1726,
      "Zd": 1727,
      "mr": 1728,
      "hV": 1729,
      "jd": 1730,
      "×ĳ": 1731,
      "Ze": 1732,
      "icon": 1733,
      "qP": 1734,
      "Ut": 1735,
      "Ġy": 1736,
      "select": 1737,
      "MW": 1738,
      "Mv": 1739,
      "boot": 1740,
      "DK": 1741,
      "Dr": 1742,
      "Zv": 1743,
      "uB": 1744,
      "OG": 1745,
      "jK": 1746,
      "pK": 1747,
      "Ġ{\"": 1748,
      "wY": 1749,
      "Le": 1750,
      "DP": 1751,
      "XE": 1752,
      "jt": 1753,
      "Hv": 1754,
      "Nb": 1755,
      "FV": 1756,
      "pP": 1757,
      "ï¿½.": 1758,
      "qi": 1759,
      "uV": 1760,
      "gR": 1761,
      "sto": 1762,
      "wV": 1763,
      "Xr": 1764,
      "qS": 1765,
      "cJ": 1766,
      "catalog": 1767,
      "Cn": 1768,
      "wS": 1769,
      "Ll": 1770,
      "Ġc": 1771,
      "ï¿½ï¿½ï¿½ï¿½ï¿½ï¿½ï¿½ï¿½ï¿½ï¿½ï¿½ï¿½ï¿½ï¿½ï¿½ï¿½": 1772,
      "Mb": 1773,
      "qR": 1774,
      "wK": 1775,
      "jr": 1776,
      "Md": 1777,
      "Mr": 1778,
      "til": 1779,
      "dragg": 1780,
      "ĠA": 1781,
      "draggable": 1782,
      "services": 1783,
      "fP": 1784,
      "Un": 1785,
      "wz": 1786,
      "Tv": 1787,
      "hP": 1788,
      "Er": 1789,
      "Ġdraggable": 1790,
      "Ġstyle": 1791,
      "Dy": 1792,
      "Pro": 1793,
      "conversion": 1794,
      "kc": 1795,
      "rect": 1796,
      "HG": 1797,
      "class": 1798,
      "fK": 1799,
      "Hi": 1800,
      "Hs": 1801,
      "fR": 1802,
      "wP": 1803,
      "jP": 1804,
      "Wt": 1805,
      "Fg": 1806,
      "Fs": 1807,
      "wl": 1808,
      "AEQ": 1809,
      "Ġ{": 1810,
      "BR": 1811,
      "ognl": 1812,
      "Wo": 1813,
      "::": 1814,
      "jE": 1815,
      "Hr": 1816,
      "Fl": 1817,
      "cv": 1818,
      "pR": 1819,
      "Ot": 1820,
      "hg": 1821,
      "Dz": 1822,
      "Gt": 1823,
      "Fe": 1824,
      "CON": 1825,
      "Us": 1826,
      "×ª": 1827,
      "×ķ×ª": 1828,
      "fJ": 1829,
      "windows": 1830,
      "Do": 1831,
      "Lm": 1832,
      "Zt": 1833,
      "ku": 1834,
      "Gs": 1835,
      "qo": 1836,
      "hE": 1837,
      "Lv": 1838,
      "qd": 1839,
      "Iv": 1840,
      "wt": 1841,
      "Zb": 1842,
      "Ht": 1843,
      "ep": 1844,
      "Ia": 1845,
      "&_": 1846,
      "Hc": 1847,
      "ĠUA": 1848,
      "Wv": 1849,
      "vers": 1850,
      "025": 1851,
      "Wd": 1852,
      "FY": 1853,
      "Gb": 1854,
      "track": 1855,
      "Na": 1856,
      "Xt": 1857,
      "FE": 1858,
      "les": 1859,
      "uo": 1860,
      "config": 1861,
      "UY": 1862,
      "mz": 1863,
      "Xe": 1864,
      "gv": 1865,
      "Gn": 1866,
      "ie": 1867,
      "qs": 1868,
      "women": 1869,
      "pages": 1870,
      "Wn": 1871,
      "ine": 1872,
      "Fc": 1873,
      "Oo": 1874,
      "Td": 1875,
      "kE": 1876,
      "ner": 1877,
      "pS": 1878,
      "Go": 1879,
      "Od": 1880,
      "Dl": 1881,
      "fY": 1882,
      "Ha": 1883,
      "Ġ×Ķ": 1884,
      "doc": 1885,
      "Fd": 1886,
      "fv": 1887,
      "Type": 1888,
      "Hb": 1889,
      "Uv": 1890,
      "Ce": 1891,
      "post": 1892,
      "Zo": 1893,
      "Nd": 1894,
      "Wr": 1895,
      "ument": 1896,
      "Lr": 1897,
      "direct": 1898,
      "ton": 1899,
      "}</": 1900,
      "Wb": 1901,
      "Cd": 1902,
      "....": 1903,
      "700": 1904,
      "BK": 1905,
      "enter": 1906,
      "FK": 1907,
      "wc": 1908,
      "kg": 1909,
      "Tt": 1910,
      "Lt": 1911,
      "Xd": 1912,
      "echo": 1913,
      "Db": 1914,
      "mS": 1915,
      "man": 1916,
      "Vy": 1917,
      "Ie": 1918,
      "VJ": 1919,
      "Rl": 1920,
      "rop": 1921,
      "Hd": 1922,
      "qe": 1923,
      "Ġ×ŀ×": 1924,
      "mv": 1925,
      "ES": 1926,
      "kN": 1927,
      "wh": 1928,
      "Lb": 1929,
      "Xo": 1930,
      "mP": 1931,
      "116": 1932,
      "Fn": 1933,
      "alle": 1934,
      "player": 1935,
      "tes": 1936,
      "303": 1937,
      "io": 1938,
      "gY": 1939,
      "cK": 1940,
      "Dx": 1941,
      "input": 1942,
      "pri": 1943,
      "Ub": 1944,
      "We": 1945,
      "uS": 1946,
      "FS": 1947,
      "XX": 1948,
      "JS": 1949,
      "fin": 1950,
      "Zs": 1951,
      "ua": 1952,
      "cR": 1953,
      "att": 1954,
      "Ġ180": 1955,
      "250": 1956,
      "erce": 1957,
      "Oe": 1958,
      "new": 1959,
      "Ġauto": 1960,
      "null": 1961,
      "Dv": 1962,
      "IX": 1963,
      "qg": 1964,
      "ZT": 1965,
      "Util": 1966,
      "Vz": 1967,
      "dition": 1968,
      "Qx": 1969,
      "Ws": 1970,
      "Dt": 1971,
      "Ns": 1972,
      "Jz": 1973,
      "cP": 1974,
      "Fo": 1975,
      "int": 1976,
      "tag": 1977,
      "lement": 1978,
      "color": 1979,
      "document": 1980,
      "Dd": 1981,
      "fB": 1982,
      "cY": 1983,
      "blog": 1984,
      "Ud": 1985,
      "ure": 1986,
      "Dn": 1987,
      "transition": 1988,
      "Ġondrag": 1989,
      "googlead": 1990,
      "MX": 1991,
      "ZG": 1992,
      "bs": 1993,
      "ssue": 1994,
      "qos": 1995,
      "mu": 1996,
      "ZH": 1997,
      "pE": 1998,
      "OX": 1999
    },
    "merges": [
      "2 2",
      "r e",
      "Ġ /",
      "o n",
      "E T",
      "G ET",
      "2 0",
      "t e",
      "s e",
      "¿ ½",
      "ï ¿½",
      "Ġ 1",
      "i n",
      "A A",
      "a m",
      "l e",
      "r o",
      "s t",
      "ï¿½ ï¿½",
      "t i",
      "am p",
      "e n",
      "c o",
      "re f",
      "e r",
      "g e",
      "0 0",
      "a l",
      "6 6",
      "o r",
      "a n",
      "h t",
      "a t",
      "a r",
      "c on",
      "w w",
      "1 7",
      "i d",
      "2 9",
      "2 8",
      "2 5",
      "s s",
      "8 0",
      "l o",
      "t p",
      "$ %",
      "a d",
      "1 0",
      "a ge",
      "j s",
      ". .",
      "2 3",
      "p g",
      "co m",
      "2 7",
      "1 9",
      "ht tp",
      "h e",
      "1 6",
      "d e",
      "d i",
      "u l",
      "2 4",
      ": /",
      "c e",
      "l i",
      "O M",
      "t o",
      "c t",
      ": -",
      "3 0",
      "O S",
      "ï¿½ï¿½ ï¿½ï¿½",
      "m e",
      "n t",
      ":/ /",
      "p ro",
      "f f",
      "1 5",
      "n e",
      "w p",
      "R OM",
      "http s",
      "2 6",
      "AA AA",
      "t y",
      "r i",
      "1 3",
      "a c",
      "ro w",
      "h o",
      "\" :",
      "P OS",
      "1 4",
      "i m",
      "b row",
      "brow se",
      "i l",
      "a s",
      "p l",
      "a b",
      "u r",
      "ti on",
      "con te",
      "1 8",
      "t r",
      "Ġ 0",
      "9 9",
      "o o",
      "a te",
      "s i",
      "a p",
      "u p",
      "ww w",
      "p o",
      "4 0",
      "T I",
      "Ġ ×",
      "f i",
      "v i",
      "F ROM",
      "9 0",
      ", \"",
      "< /",
      "O N",
      "s c",
      "u t",
      "re s",
      "d u",
      "POS T",
      "R E",
      "u e",
      "ul t",
      "c h",
      "5 0",
      "p t",
      "7 3",
      "1 66",
      "1 1",
      "6 0",
      "p age",
      "4 3",
      "Ġ https",
      "en t",
      ".. /",
      "4 7",
      "conte nt",
      "9 5",
      "d o",
      "in g",
      "6 3",
      "p e",
      "a g",
      "f al",
      "fal se",
      "res ult",
      "Ġ 2",
      "9 8",
      "s n",
      "7 7",
      "4 5",
      "A B",
      "c at",
      "4 8",
      "\": \"",
      "9 3",
      "an d",
      "4 6",
      "m o",
      "e b",
      "Ġ1 66",
      "u b",
      "u n",
      "e d",
      "t h",
      "9 6",
      "te m",
      "se t",
      "Ġ <",
      "u s",
      "Ġ on",
      "j pg",
      "p h",
      "c k",
      "e s",
      "= \"",
      "_ _",
      "1 2",
      "s z",
      "3 3",
      "× Ļ",
      "v er",
      "A E",
      "du ct",
      "0 5",
      "\" ,\"",
      "e t",
      "m a",
      "3 5",
      "= %",
      "Ġ1 9",
      "7 5",
      "S E",
      "I D",
      "../ ../",
      "a y",
      "u g",
      "Ġ 3",
      "6 5",
      "7 8",
      "pro duct",
      "s h",
      "en ti",
      "w s",
      "A C",
      "m d",
      "6 8",
      "f r",
      "g i",
      "t m",
      "3 8",
      "r m",
      "C T",
      "c a",
      "Ġ19 20",
      "enti ty",
      "TI ON",
      "x t",
      "u m",
      "im age",
      "pg sz",
      "Ġ1 0",
      "po sn",
      "lo g",
      "c l",
      "ne t",
      "T E",
      "4 4",
      "7 0",
      "li st",
      "s o",
      "f a",
      "se r",
      "× ķ",
      "s y",
      "E R",
      "p n",
      "lo ad",
      "st y",
      "2 1",
      "I E",
      "r t",
      "- -",
      "I N",
      "i t",
      "sty le",
      "m l",
      "E N",
      "e w",
      "9 4",
      "k o",
      "ab le",
      "a v",
      "T Y",
      "8 8",
      "I S",
      "i tem",
      "am e",
      "9 7",
      "×Ļ ×",
      "P L",
      "3 6",
      "5 7",
      "at a",
      "×ķ ×",
      "f o",
      "ri pt",
      "P E",
      "a le",
      "te r",
      "f or",
      "a u",
      "b e",
      "3 7",
      "Ġ false",
      "> </",
      ") \"",
      "C A",
      ") %",
      "e v",
      "a tion",
      "te st",
      "m in",
      "or y",
      "ti c",
      "D I",
      "t a",
      "5 8",
      "i g",
      "s r",
      "ï¿½ï¿½ï¿½ï¿½ ï¿½ï¿½ï¿½ï¿½",
      "k e",
      "o m",
      "o g",
      "ge t",
      "i c",
      "F F",
      "3 4",
      "d ata",
      "f b",
      "B s",
      "9 1",
      "0 1",
      "F O",
      "tr ue",
      "0 8",
      "n o",
      "6 4",
      "l d",
      "up load",
      "S C",
      "T y",
      "d r",
      "ge ar",
      "net gear",
      "e c",
      "B B",
      "6 7",
      "5 5",
      "c f",
      "c ss",
      "A R",
      "v e",
      "sc ript",
      "ph p",
      "A n",
      "w i",
      "o p",
      "c ate",
      "g le",
      "e e",
      "f l",
      "0 2",
      "A g",
      "c d",
      "con fi",
      "oo gle",
      "upload s",
      "C h",
      "4 1",
      "3 2",
      "p a",
      "si on",
      "g ory",
      "A Q",
      "a f",
      "9 2",
      "in s",
      "A D",
      "p r",
      "5 3",
      "m b",
      "M T",
      "5 2",
      "/ .",
      "c b",
      "s v",
      "A I",
      "w eb",
      "a e",
      "cate gory",
      "q u",
      "/ %",
      "n d",
      "k i",
      "c re",
      "f y",
      "AAAA AAAA",
      "Ġ 5",
      "se c",
      "A Y",
      "image s",
      "0 9",
      "d c",
      "Ġ G",
      "a a",
      "I L",
      "co l",
      "ul l",
      "b o",
      "t he",
      "p i",
      "0 3",
      "U S",
      "M o",
      "A G",
      "h C",
      "4 9",
      "d t",
      "U A",
      "8 3",
      "e l",
      "w g",
      "se ss",
      "C I",
      "t s",
      "5 6",
      "d n",
      "f e",
      "M D",
      "> <",
      "s p",
      "st a",
      "5 9",
      "b Q",
      "A K",
      "I n",
      "ï¿½ %",
      "e x",
      "3 1",
      "A S",
      "e o",
      "pn g",
      "g B",
      "A F",
      "ti d",
      "n l",
      "A L",
      "c ur",
      "o l",
      "pl ug",
      "Ġ/ /",
      "b b",
      "4 2",
      ". %",
      "ate d",
      "B Q",
      "U N",
      "- %",
      "5 1",
      "ac k",
      "8 6",
      "O D",
      "tm p",
      "ap p",
      "m i",
      "ty pe",
      "m K",
      "3 9",
      "s k",
      "c y",
      "ale rt",
      "0 6",
      "vi ew",
      "z i",
      "A N",
      "as set",
      "5 4",
      "ar t",
      "{ \"",
      "7 1",
      "r f",
      "et c",
      "20 22",
      "Ġ 24",
      "b r",
      "V IE",
      "s O",
      "VIE W",
      "plug ins",
      "C H",
      "7 6",
      "T F",
      "+ /",
      "b y",
      "fi le",
      "7 4",
      "+ -",
      "ff ff",
      "O TE",
      "RE R",
      "d s",
      "n ame",
      "SE C",
      "RE F",
      "A M",
      "ko i",
      "sta tic",
      "asset s",
      "A P",
      "TI D",
      "TY PE",
      "p re",
      "ev ent",
      "C J",
      "cre ated",
      "I TION",
      "POS ITION",
      "SEC TION",
      "00 0",
      "ER RER",
      "REF ERRER",
      "j n",
      "pg sess",
      "c md",
      "P ROM",
      "OTE D",
      "PROM OTED",
      "u ser",
      "q f",
      "C B",
      "ver sion",
      "d d",
      "i s",
      "A w",
      "de x",
      "M z",
      "Ġ 9",
      "me di",
      "' %",
      "g o",
      "8 4",
      "ub cat",
      "* ?",
      "0 7",
      "m ent",
      "Bs ubcat",
      "o ut",
      "Z W",
      "/ $%",
      "Ġ -",
      "IN FO",
      "p b",
      "N E",
      "di t",
      "ht ml",
      "I F",
      "Y W",
      "L E",
      "b a",
      "c s",
      "20 1",
      "*? *?",
      "DI CT",
      "i r",
      "L j",
      "8 5",
      "A false",
      "b u",
      "com m",
      "7 9",
      "o s",
      "Ġ S",
      "confi rm",
      "b d",
      "E F",
      "en d",
      "in dex",
      "Ġ10 80",
      "le ct",
      "I j",
      "m pt",
      "f c",
      "v b",
      "A c",
      "I m",
      "N j",
      "0 4",
      "pro mpt",
      "C Q",
      "c i",
      "lo w",
      "a W",
      "j e",
      "8 7",
      "8 9",
      "w d",
      "I i",
      ")\" >",
      "A h",
      "V i",
      "u v",
      "R J",
      "A J",
      "8 1",
      "p s",
      "for m",
      "f d",
      "D a",
      "M j",
      "l in",
      "l a",
      "h p",
      "Ġ C",
      "Ġ 4",
      "A u",
      "b i",
      "k y",
      "C F",
      "E g",
      "Z X",
      "p x",
      "f t",
      "b n",
      "A x",
      "S I",
      "M C",
      "al l",
      "s m",
      "dr ag",
      "H J",
      "w a",
      "6 9",
      "Y B",
      "T M",
      "ne ws",
      ": $%",
      "166 0",
      "u k",
      "w n",
      "js on",
      "8 2",
      "y J",
      "c m",
      "v id",
      "d m",
      "../../ ../../",
      "C E",
      "l s",
      "medi a",
      "I d",
      "c c",
      "o a",
      "B h",
      "A U",
      "b g",
      "me s",
      "at h",
      "× ¨",
      "D Q",
      "ce s",
      "m Z",
      "p p",
      "k t",
      "R R",
      "h i",
      "C g",
      "u d",
      "6 1",
      "a x",
      "s l",
      "h b",
      "m y",
      "i L",
      "Q U",
      "M y",
      "Ġ166 0",
      "z L",
      "B E",
      "A O",
      "W U",
      "k s",
      "n i",
      "R e",
      "d a",
      "- _",
      "r y",
      "d f",
      "p er",
      "S y",
      "A V",
      "au to",
      "b l",
      "Ġ id",
      "I Q",
      "7 2",
      "6 2",
      "z a",
      "g E",
      "u i",
      "s ho",
      "sv g",
      "tr an",
      "n te",
      "Z m",
      "w in",
      "j w",
      "g AAAA",
      "S t",
      "e a",
      "u F",
      "O g",
      "on te",
      "l l",
      "O R",
      "A T",
      "K J",
      "H E",
      "Ġ conte",
      "dit able",
      "nte ditable",
      "Ġconte nteditable",
      "G F",
      "ce ss",
      "s w",
      "O j",
      "S i",
      "G B",
      "O m",
      "Q Q",
      "u se",
      "ŀ ×",
      "A H",
      "T U",
      "V F",
      "c r",
      "a w",
      "N l",
      "D E",
      "p y",
      "M i",
      "N o",
      "O i",
      "R o",
      "b c",
      "Ġ |",
      "a k",
      "C C",
      "p f",
      "M S",
      "G Z",
      "U y",
      "p c",
      "ur l",
      "l y",
      "vid eo",
      "E x",
      "RE EN",
      "T J",
      "ch r",
      "b f",
      "G V",
      "u de",
      "A Z",
      "c B",
      "C o",
      "m ar",
      "SC REEN",
      "z e",
      "c u",
      "a i",
      "b oo",
      "Y m",
      "G g",
      "c C",
      "Ġ P",
      "page ad",
      "H M",
      "o w",
      "d l",
      ". \\",
      "ĠG oogle",
      "g r",
      "d y",
      "An ull",
      "p v",
      "Y X",
      "low er",
      "re n",
      "ac he",
      "S S",
      "N z",
      "I g",
      "F B",
      "N T",
      "hC sO",
      "mK Ty",
      "bQ hCsO",
      "ĠGoogle mKTy",
      "ĠGooglemKTy bQhCsO",
      "L T",
      "w e",
      "n c",
      "A z",
      "G l",
      "H o",
      "M B",
      "F i",
      "A i",
      "x w",
      "d b",
      "W l",
      "f s",
      "B lower",
      "X B",
      "re nt",
      "I V",
      "N y",
      "ti t",
      "T b",
      "cl ude",
      "W S",
      "30 4",
      "g oogle",
      "g t",
      "G R",
      "e f",
      "he ck",
      "I l",
      "Ġ10 40",
      "I s",
      "25 3",
      "\" }",
      "w v",
      "A X",
      "A y",
      "gAAAA AB",
      "G H",
      "gi f",
      "ar ch",
      "W F",
      "C M",
      "× ľ",
      "p ath",
      "P R",
      "K Q",
      "c gi",
      "= /",
      "a z",
      "O T",
      "D e",
      "u Z",
      "C N",
      "n Q",
      "u c",
      "W E",
      "ne xt",
      "Y z",
      "C G",
      "w o",
      "L i",
      "C j",
      "Ġ t",
      "V V",
      "A v",
      "L B",
      "U F",
      "the mes",
      "t ing",
      "pl ay",
      "ht m",
      "or d",
      "A d",
      "Ġ ON",
      "j h",
      "3 00",
      "U E",
      "Z S",
      "D S",
      ".\\ .\\",
      "I B",
      "X R",
      "L L",
      "k a",
      "er y",
      "Y Q",
      "u nt",
      "M E",
      "g d",
      "A W",
      "Ġ event",
      "sr c",
      "g n",
      "H V",
      "re d",
      "20 0",
      "U R",
      "H R",
      "F k",
      "M R",
      "x y",
      "r d",
      "M G",
      "p u",
      "N D",
      "Ġ en",
      "× Ķ",
      "/ *",
      ". /.",
      "I P",
      "M k",
      "Mo zi",
      "s d",
      "M P",
      "m V",
      "Z j",
      "so le",
      "p d",
      "H B",
      "h y",
      "i x",
      "W Q",
      "8 80",
      "N F",
      "O U",
      "E V",
      "N S",
      "1 00",
      "v o",
      "c chr",
      "con sole",
      "in i",
      "r b",
      "x x",
      "N e",
      "U J",
      "A j",
      "g y",
      "U K",
      "G Q",
      "o b",
      ") ></",
      "tit le",
      "o ur",
      "D B",
      "c n",
      "z z",
      "C i",
      "A t",
      "P l",
      "Ġ/ ?",
      "w E",
      "o f",
      "Y S",
      "er s",
      "V l",
      "g b",
      "p ub",
      "ke y",
      "C L",
      "Ġ 6",
      "ho me",
      "fa ult",
      "I K",
      "F R",
      "G x",
      "om en",
      "n s",
      "to p",
      "u y",
      "w Q",
      "C R",
      "s tem",
      "A r",
      "p q",
      "O Q",
      "Ġ true",
      "w get",
      "set up",
      "W V",
      "I k",
      "G U",
      "I y",
      "v t",
      "h q",
      "im g",
      "G J",
      "N J",
      "C P",
      "Ġ166 3",
      "19 3",
      "_ -",
      "L o",
      "H y",
      "F t",
      "T e",
      "M Q",
      "A s",
      "X Q",
      "or t",
      "Z Z",
      "H P",
      "w B",
      "O J",
      "U x",
      "w y",
      "g Q",
      "N B",
      "X S",
      "A m",
      "q q",
      "u ff",
      "W J",
      "cur rent",
      "j Q",
      "C K",
      "ser vi",
      "j av",
      "×Ļ× Ŀ",
      "W D",
      "jn di",
      "10 80",
      "N Q",
      "L D",
      "g P",
      "ho to",
      "L y",
      "heck out",
      "qu ery",
      "U Q",
      "h l",
      "set ting",
      "h d",
      "W Y",
      "co unt",
      "C l",
      "an im",
      "M w",
      "h x",
      "k p",
      "ho st",
      "N v",
      "am es",
      "V Q",
      "X J",
      "ffff ff",
      "m s",
      "Z l",
      "k Q",
      "T H",
      "Ġ www",
      "N i",
      "C D",
      "O P",
      "O E",
      "T r",
      ") )",
      "Z y",
      "k B",
      "G P",
      "M J",
      "A q",
      "si te",
      "M e",
      "M m",
      "/. /.",
      "k l",
      "g K",
      "S e",
      "Ġ ffffff",
      "Z D",
      "k r",
      "do ws",
      "U z",
      "h r",
      "Ġ 7",
      "pa ss",
      "an ce",
      "L Q",
      "X V",
      "W H",
      "X q",
      "E w",
      "cf g",
      "anim ation",
      "f u",
      "U P",
      "R Q",
      "I Y",
      "K Y",
      "Z Y",
      "L F",
      "C S",
      "f S",
      "g u",
      "T V",
      "I J",
      "to do",
      "o x",
      "00 00",
      "Z Q",
      "f z",
      "T R",
      "=/ &",
      "sy sc",
      "k V",
      "O V",
      "j b",
      "cur path",
      "current setting",
      "sysc md",
      "U r",
      "F y",
      "i on",
      "w x",
      "A l",
      "G W",
      "c p",
      "A a",
      "U B",
      "Z J",
      "H Q",
      "D J",
      "g l",
      "k x",
      "h B",
      "v a",
      "I z",
      "U V",
      "e y",
      "onte nd",
      "Z V",
      "ac ti",
      "G Y",
      "L R",
      "Z R",
      "F www",
      "N W",
      "k J",
      "O b",
      "al og",
      "d z",
      "f x",
      "G K",
      "j J",
      "/ ?",
      "F Q",
      "ro m",
      "s b",
      "G D",
      "N R",
      "w J",
      "O y",
      "X Y",
      "14 3",
      "O W",
      "M x",
      "k v",
      "ap i",
      "fr ontend",
      "q z",
      "G E",
      "M K",
      "T l",
      "25 2",
      "o u",
      "j S",
      "k b",
      "N V",
      "n a",
      "g D",
      "se arch",
      "F P",
      "T Q",
      "w D",
      "p ut",
      "in clude",
      "4 43",
      "A e",
      "X z",
      "d Y",
      "st r",
      "T B",
      "H K",
      "U i",
      "N K",
      "c z",
      "T o",
      "m R",
      "I R",
      "ki e",
      "h v",
      "c ache",
      "k K",
      "M l",
      "pre ss",
      "p Q",
      "m Q",
      "O K",
      "c us",
      "p hoto",
      "p B",
      "= &",
      "A o",
      "C Y",
      "I t",
      "L z",
      "C s",
      "M V",
      "k z",
      "lin e",
      "M F",
      "x l",
      "q y",
      "166 3",
      "M n",
      "ar d",
      "q l",
      "C V",
      "c li",
      "16 5",
      "*?*? *?*?",
      "j y",
      "U D",
      "H l",
      "W B",
      "O z",
      "col lect",
      "Ġ U",
      "c tion",
      "H Y",
      "q Q",
      "O r",
      "p z",
      "u R",
      "q E",
      "ï¿½ ^",
      "j query",
      "S z",
      "AAAAAAAA AAAAAAAA",
      "U l",
      "q J",
      "O B",
      "h J",
      "Z z",
      "s a",
      "T i",
      "c Q",
      "W i",
      "G v",
      "m x",
      "L J",
      "Z B",
      "G y",
      "N P",
      "Z F",
      "f V",
      "j g",
      "Z E",
      "q t",
      "j Y",
      "L Y",
      "O F",
      "c S",
      "X b",
      "q x",
      "d B",
      "O n",
      "u Q",
      "G e",
      "co o",
      "Z x",
      "q V",
      "f rom",
      "q r",
      "/ /",
      "W R",
      "I b",
      "L K",
      "\\ ..",
      "h s",
      "I o",
      "w r",
      "X x",
      "X y",
      "f Q",
      "I x",
      "si tion",
      "mo use",
      "/* ;",
      "Z K",
      "sy stem",
      "M Y",
      "ti me",
      "W y",
      "P Q",
      "N U",
      "Ġt ab",
      "fo cus",
      "u K",
      "M t",
      "j o",
      "B jndi",
      "H U",
      "h Q",
      "m n",
      "C y",
      "X l",
      "k d",
      "Ġtab index",
      "m Y",
      "a ss",
      "Ġ166 05",
      "18 6",
      "T S",
      "G i",
      "h z",
      "u J",
      "O Y",
      "G S",
      "N Y",
      "F z",
      "or g",
      "un d",
      "O l",
      "__ __",
      "T P",
      "v d",
      "× ©",
      "g z",
      "22 16",
      "k n",
      "C z",
      "m p",
      "g a",
      "u P",
      "al th",
      "H D",
      "L n",
      "k P",
      "C w",
      "E B",
      "E y",
      "g J",
      "s f",
      "L V",
      "v y",
      "C x",
      "q n",
      "j l",
      "Z P",
      "G d",
      "oo b",
      "A f",
      "E P",
      "w id",
      "X K",
      "on e",
      "H x",
      "j V",
      "u x",
      "W x",
      "O x",
      "X P",
      "h Y",
      "-- %",
      "Ġ j",
      "G z",
      "96 9",
      "include s",
      "H S",
      "k Y",
      "F w",
      "u Y",
      "pass wd",
      "r z",
      "M U",
      "t c",
      "W z",
      "j x",
      "q K",
      "19 8",
      "v l",
      "Z i",
      "j z",
      "T K",
      "W P",
      "T z",
      "k f",
      "j i",
      "h a",
      "$ {",
      "t t",
      "Ġ [",
      "X F",
      "D R",
      "u f",
      "24 4",
      "product s",
      "W K",
      "m c",
      "m J",
      "k R",
      "T x",
      "g x",
      "g ht",
      "u z",
      "g w",
      "p Y",
      "E v",
      "he alth",
      "j B",
      "N n",
      "q B",
      "coo kie",
      "p J",
      "N x",
      "C a",
      "ma in",
      "G r",
      "166 05",
      "A b",
      "Z U",
      "C U",
      "log in",
      "X n",
      "C v",
      "N t",
      "de fault",
      "H z",
      "D i",
      "h R",
      "w b",
      "C r",
      "L S",
      "H e",
      "c x",
      "h n",
      "m ap",
      "Z r",
      "m t",
      "H n",
      "o d",
      "X v",
      "D V",
      "× Ĳ",
      "D Y",
      "o e",
      "h S",
      "m E",
      "h K",
      "Ġ 8",
      "con ta",
      "Ġon mouse",
      "C b",
      "M a",
      "j a",
      "L x",
      "q b",
      "k S",
      "p V",
      "F J",
      "o i",
      "fr ames",
      "q Y",
      "Z n",
      "q v",
      "j v",
      "F x",
      "N r",
      "F a",
      "T n",
      "j R",
      "O v",
      "m B",
      "Ġ e",
      "L P",
      "C t",
      "w R",
      "× ł",
      "ue st",
      "X i",
      "I r",
      "f n",
      "di st",
      "F r",
      "Z d",
      "m r",
      "h V",
      "j d",
      "× ĳ",
      "Z e",
      "i con",
      "q P",
      "U t",
      "Ġ y",
      "se lect",
      "M W",
      "M v",
      "boo t",
      "D K",
      "D r",
      "Z v",
      "u B",
      "O G",
      "j K",
      "p K",
      "Ġ {\"",
      "w Y",
      "L e",
      "D P",
      "X E",
      "j t",
      "H v",
      "N b",
      "F V",
      "p P",
      "ï¿½ .",
      "q i",
      "u V",
      "g R",
      "st o",
      "w V",
      "X r",
      "q S",
      "c J",
      "cat alog",
      "C n",
      "w S",
      "L l",
      "Ġ c",
      "ï¿½ï¿½ï¿½ï¿½ï¿½ï¿½ï¿½ï¿½ ï¿½ï¿½ï¿½ï¿½ï¿½ï¿½ï¿½ï¿½",
      "M b",
      "q R",
      "w K",
      "j r",
      "M d",
      "M r",
      "ti l",
      "drag g",
      "Ġ A",
      "dragg able",
      "servi ces",
      "f P",
      "U n",
      "w z",
      "T v",
      "h P",
      "E r",
      "Ġ draggable",
      "Ġ style",
      "D y",
      "P ro",
      "con version",
      "k c",
      "re ct",
      "H G",
      "cl ass",
      "f K",
      "H i",
      "H s",
      "f R",
      "w P",
      "j P",
      "W t",
      "F g",
      "F s",
      "w l",
      "AE Q",
      "Ġ {",
      "B R",
      "og nl",
      "W o",
      ": :",
      "j E",
      "H r",
      "F l",
      "c v",
      "p R",
      "O t",
      "h g",
      "D z",
      "G t",
      "F e",
      "C ON",
      "U s",
      "× ª",
      "×ķ× ª",
      "f J",
      "win dows",
      "D o",
      "L m",
      "Z t",
      "k u",
      "G s",
      "q o",
      "h E",
      "L v",
      "q d",
      "I v",
      "w t",
      "Z b",
      "H t",
      "e p",
      "I a",
      "& _",
      "H c",
      "Ġ UA",
      "W v",
      "ver s",
      "0 25",
      "W d",
      "F Y",
      "G b",
      "tr ack",
      "N a",
      "X t",
      "F E",
      "le s",
      "u o",
      "confi g",
      "U Y",
      "m z",
      "X e",
      "g v",
      "G n",
      "i e",
      "q s",
      "w omen",
      "page s",
      "W n",
      "in e",
      "F c",
      "O o",
      "T d",
      "k E",
      "n er",
      "p S",
      "G o",
      "O d",
      "D l",
      "f Y",
      "H a",
      "Ġ× Ķ",
      "do c",
      "F d",
      "f v",
      "Ty pe",
      "H b",
      "U v",
      "C e",
      "po st",
      "Z o",
      "N d",
      "W r",
      "um ent",
      "L r",
      "di rect",
      "t on",
      "} </",
      "W b",
      "C d",
      ".. ..",
      "7 00",
      "B K",
      "en ter",
      "F K",
      "w c",
      "k g",
      "T t",
      "L t",
      "X d",
      "ec ho",
      "D b",
      "m S",
      "m an",
      "V y",
      "I e",
      "V J",
      "R l",
      "ro p",
      "H d",
      "q e",
      "Ġ× ŀ×",
      "m v",
      "E S",
      "k N",
      "w h",
      "L b",
      "X o",
      "m P",
      "1 16",
      "F n",
      "al le",
      "play er",
      "te s",
      "30 3",
      "i o",
      "g Y",
      "c K",
      "D x",
      "in put",
      "p ri",
      "U b",
      "W e",
      "u S",
      "F S",
      "X X",
      "J S",
      "f in",
      "Z s",
      "u a",
      "c R",
      "at t",
      "Ġ1 80",
      "25 0",
      "er ce",
      "O e",
      "ne w",
      "Ġ auto",
      "n ull",
      "D v",
      "I X",
      "q g",
      "Z T",
      "U til",
      "V z",
      "di tion",
      "Q x",
      "W s",
      "D t",
      "N s",
      "J z",
      "c P",
      "F o",
      "in t",
      "t ag",
      "le ment",
      "col or",
      "doc ument",
      "D d",
      "f B",
      "c Y",
      "b log",
      "U d",
      "u re",
      "D n",
      "tran sition",
      "Ġon drag",
      "google ad",
      "M X",
      "Z G",
      "b s",
      "ss ue",
      "q os",
      "m u",
      "Z H",
      "p E",
      "O X"
    ]
  }
}