{"version": "1.0", "truncation": null, "padding": null, "added_tokens": [{"id": 0, "content": "<s>", "single_word": false, "lstrip": false, "rstrip": false, "normalized": false, "special": true}, {"id": 1, "content": "<pad>", "single_word": false, "lstrip": false, "rstrip": false, "normalized": false, "special": true}, {"id": 2, "content": "</s>", "single_word": false, "lstrip": false, "rstrip": false, "normalized": false, "special": true}, {"id": 3, "content": "<unk>", "single_word": false, "lstrip": false, "rstrip": false, "normalized": false, "special": true}, {"id": 4, "content": "<mask>", "single_word": false, "lstrip": false, "rstrip": false, "normalized": false, "special": true}], "normalizer": null, "pre_tokenizer": {"type": "ByteLevel", "add_prefix_space": false, "trim_offsets": true, "use_regex": true}, "post_processor": {"type": "ByteLevel", "add_prefix_space": true, "trim_offsets": false, "use_regex": true}, "decoder": {"type": "ByteLevel", "add_prefix_space": true, "trim_offsets": true, "use_regex": true}, "model": {"type": "BPE", "dropout": null, "unk_token": null, "continuing_subword_prefix": null, "end_of_word_suffix": null, "fuse_unk": false, "byte_fallback": false, "ignore_merges": false, "vocab": {"<s>": 0, "<pad>": 1, "</s>": 2, "<unk>": 3, "<mask>": 4, "!": 5, "\"": 6, "#": 7, "$": 8, "%": 9, "&": 10, "'": 11, "(": 12, ")": 13, "*": 14, "+": 15, ",": 16, "-": 17, ".": 18, "/": 19, "0": 20, "1": 21, "2": 22, "3": 23, "4": 24, "5": 25, "6": 26, "7": 27, "8": 28, "9": 29, ":": 30, ";": 31, "<": 32, "=": 33, ">": 34, "?": 35, "@": 36, "A": 37, "B": 38, "C": 39, "D": 40, "E": 41, "F": 42, "G": 43, "H": 44, "I": 45, "J": 46, "K": 47, "L": 48, "M": 49, "N": 50, "O": 51, "P": 52, "Q": 53, "R": 54, "S": 55, "T": 56, "U": 57, "V": 58, "W": 59, "X": 60, "Y": 61, "Z": 62, "[": 63, "\\": 64, "]": 65, "^": 66, "_": 67, "`": 68, "a": 69, "b": 70, "c": 71, "d": 72, "e": 73, "f": 74, "g": 75, "h": 76, "i": 77, "j": 78, "k": 79, "l": 80, "m": 81, "n": 82, "o": 83, "p": 84, "q": 85, "r": 86, "s": 87, "t": 88, "u": 89, "v": 90, "w": 91, "x": 92, "y": 93, "z": 94, "{": 95, "|": 96, "}": 97, "~": 98, "\u00a1": 99, "\u00a2": 100, "\u00a3": 101, "\u00a4": 102, "\u00a5": 103, "\u00a6": 104, "\u00a7": 105, "\u00a8": 106, "\u00a9": 107, "\u00aa": 108, "\u00ab": 109, "\u00ac": 110, "\u00ae": 111, "\u00af": 112, "\u00b0": 113, "\u00b1": 114, "\u00b2": 115, "\u00b3": 116, "\u00b4": 117, "\u00b5": 118, "\u00b6": 119, "\u00b7": 120, "\u00b8": 121, "\u00b9": 122, "\u00ba": 123, "\u00bb": 124, "\u00bc": 125, "\u00bd": 126, "\u00be": 127, "\u00bf": 128, "\u00c0": 129, "\u00c1": 130, "\u00c2": 131, "\u00c3": 132, "\u00c4": 133, "\u00c5": 134, "\u00c6": 135, "\u00c7": 136, "\u00c8": 137, "\u00c9": 138, "\u00ca": 139, "\u00cb": 140, "\u00cc": 141, "\u00cd": 142, "\u00ce": 143, "\u00cf": 144, "\u00d0": 145, "\u00d1": 146, "\u00d2": 147, "\u00d3": 148, "\u00d4": 149, "\u00d5": 150, "\u00d6": 151, "\u00d7": 152, "\u00d8": 153, "\u00d9": 154, "\u00da": 155, "\u00db": 156, "\u00dc": 157, "\u00dd": 158, "\u00de": 159, "\u00df": 160, "\u00e0": 161, "\u00e1": 162, "\u00e2": 163, "\u00e3": 164, "\u00e4": 165, "\u00e5": 166, "\u00e6": 167, "\u00e7": 168, "\u00e8": 169, "\u00e9": 170, "\u00ea": 171, "\u00eb": 172, "\u00ec": 173, "\u00ed": 174, "\u00ee": 175, "\u00ef": 176, "\u00f0": 177, "\u00f1": 178, "\u00f2": 179, "\u00f3": 180, "\u00f4": 181, "\u00f5": 182, "\u00f6": 183, "\u00f7": 184, "\u00f8": 185, "\u00f9": 186, "\u00fa": 187, "\u00fb": 188, "\u00fc": 189, "\u00fd": 190, "\u00fe": 191, "\u00ff": 192, "\u0100": 193, "\u0101": 194, "\u0102": 195, "\u0103": 196, "\u0104": 197, "\u0105": 198, "\u0106": 199, "\u0107": 200, "\u0108": 201, "\u0109": 202, "\u010a": 203, "\u010b": 204, "\u010c": 205, "\u010d": 206, "\u010e": 207, "\u010f": 208, "\u0110": 209, "\u0111": 210, "\u0112": 211, "\u0113": 212, "\u0114": 213, "\u0115": 214, "\u0116": 215, "\u0117": 216, "\u0118": 217, "\u0119": 218, "\u011a": 219, "\u011b": 220, "\u011c": 221, "\u011d": 222, "\u011e": 223, "\u011f": 224, "\u0120": 225, "\u0121": 226, "\u0122": 227, "\u0123": 228, "\u0124": 229, "\u0125": 230, "\u0126": 231, "\u0127": 232, "\u0128": 233, "\u0129": 234, "\u012a": 235, "\u012b": 236, "\u012c": 237, "\u012d": 238, "\u012e": 239, "\u012f": 240, "\u0130": 241, "\u0131": 242, "\u0132": 243, "\u0133": 244, "\u0134": 245, "\u0135": 246, "\u0136": 247, "\u0137": 248, "\u0138": 249, "\u0139": 250, "\u013a": 251, "\u013b": 252, "\u013c": 253, "\u013d": 254, "\u013e": 255, "\u013f": 256, "\u0140": 257, "\u0141": 258, "\u0142": 259, "\u0143": 260, "in": 261, "\u0120/": 262, "er": 263, "..": 264, "ET": 265, "GET": 266, "nt": 267, "../": 268, "do": 269, "on": 270, "me": 271, "../../": 272, "ph": 273, "ri": 274, "php": 275, "ad": 276, "pt": 277, "sc": 278, "al": 279, "ript": 280, "script": 281, "st": 282, "ma": 283, "re": 284, "et": 285, "pa": 286, "or": 287, "co": 288, "ss": 289, "le": 290, "ct": 291, "lo": 292, "cu": 293, "at": 294, "wp": 295, "min": 296, "ST": 297, "ion": 298, "ert": 299, "OST": 300, "POST": 301, "ment": 302, "gin": 303, "admin": 304, "alert": 305, "ge": 306, "22": 307, "20": 308, "main": 309, "docu": 310, "document": 311, "de": 312, "domain": 313, "ent": 314, "pl": 315, "fi": 316, "ar": 317, "..%": 318, "}}": 319, "../../../../": 320, "se": 321, "{{": 322, "act": 323, "cont": 324, "an": 325, "=%": 326, "sh": 327, "11": 328, "ser": 329, "plu": 330, "plugin": 331, "content": 332, "ro": 333, "Fscript": 334, "ce": 335, "te": 336, "ch": 337, "ht": 338, "plugins": 339, "ur": 340, "27": 341, "ssw": 342, "id": 343, "ter": 344, "passw": 345, "na": 346, "li": 347, "file": 348, "ap": 349, "//": 350, ")%": 351, "Cscript": 352, "Ealert": 353, "passwd": 354, "29": 355, "etc": 356, "page": 357, "ja": 358, "28": 359, "vi": 360, "up": 361, "load": 362, "00": 363, "js": 364, "xt": 365, "gi": 366, "ut": 367, "en": 368, "url": 369, "di": 370, "tp": 371, "25": 372, "09": 373, "ate": 374, "/?": 375, "23": 376, "inter": 377, "login": 378, "jax": 379, "http": 380, "con": 381, "name": 382, "ajax": 383, "ck": 384, "str": 385, "ml": 386, "get": 387, "user": 388, "ver": 389, "mo": 390, "dex": 391, "interact": 392, "action": 393, "1111": 394, "api": 395, "cgi": 396, "il": 397, "im": 398, "index": 399, "ort": 400, "://": 401, "el": 402, "ew": 403, "ing": 404, "ba": 405, "arch": 406, "txt": 407, "eb": 408, "ty": 409, "po": 410, "pro": 411, "ran": 412, "it": 413, "pe": 414, "ra": 415, "read": 416, "/{{": 417, "dow": 418, "un": 419, "search": 420, "ex": 421, "for": 422, "sr": 423, "oo": 424, "ror": 425, "age": 426, "th": 427, "252": 428, "ass": 429, "ue": 430, "../../../../../../../../": 431, "ic": 432, "web": 433, "com": 434, "rand": 435, "readme": 436, "src": 437, "error": 438, "port": 439, "ions": 440, "><": 441, "as": 442, "der": 443, "es": 444, "log": 445, "img": 446, "LE": 447, "ms": 448, "randstr": 449, "set": 450, "all": 451, "LL": 452, "aut": 453, "win": 454, "view": 455, "ab": 456, "SE": 457, "um": 458, "ve": 459, "=&": 460, "</": 461, "={{": 462, "sy": 463, "ul": 464, "/%": 465, "am": 466, "bin": 467, "so": 468, "onerror": 469, "test": 470, "0022": 471, "ub": 472, "cl": 473, "fo": 474, "type": 475, "si": 476, "fig": 477, "ata": 478, "vice": 479, "11111111": 480, "ima": 481, "md": 482, "CT": 483, "ID": 484, "em": 485, "fa": 486, "ation": 487, "upload": 488, "nload": 489, "ard": 490, "auth": 491, "NU": 492, "html": 493, "NULL": 494, "IN": 495, "da": 496, "ed": 497, "interactsh": 498, "LECT": 499, "SELECT": 500, ".%": 501, "Na": 502, "cf": 503, "back": 504, "\\..": 505, "no": 506, "to": 507, "download": 508, ")</": 509, "du": 510, "ti": 511, "Name": 512, "),": 513, "va": 514, "ets": 515, "}}.": 516, "config": 517, "ile": 518, "jsp": 519, "dit": 520, "json": 521, "=/": 522, "data": 523, "xml": 524, "(%": 525, "33": 526, "ho": 527, "ssion": 528, "post": 529, "op": 530, "ery": 531, "rect": 532, "ord": 533, "ang": 534, "ger": 535, "sv": 536, "server": 537, "java": 538, "form": 539, "\"><": 540, "+%": 541, "aa": 542, "bo": 543, "iz": 544, "lect": 545, "redi": 546, "path": 547, "cess": 548, "https": 549, "ey": 550, "lang": 551, "../../../": 552, "Ser": 553, "pre": 554, "mana": 555, "end": 556, "=../../../../../../../../": 557, "Co": 558, "Lo": 559, "Re": 560, "cli": 561, "ww": 562, "xx": 563, "stem": 564, "mi": 565, "ne": 566, "tab": 567, "ini": 568, "mail": 569, "65": 570, "File": 571, "ac": 572, "ki": 573, "}}%": 574, "list": 575, "opt": 576, "base": 577, "dows": 578, "image": 579, "))": 580, "bu": 581, "out": 582, "qu": 583, "tr": 584, "us": 585, "unt": 586, "select": 587, "filename": 588, "=../../../../": 589, "new": 590, "ster": 591, "app": 592, "system": 593, ");": 594, ")>": 595, "fin": 596, "ip": 597, "let": 598, "sp": 599, "urce": 600, "assets": 601, "dule": 602, "client": 603, "In": 604, "ple": 605, "que": 606, "onload": 607, "stat": 608, "code": 609, "svg": 610, "redirect": 611, "Dalert": 612, "cat": 613, "key": 614, "service": 615, "module": 616, "class": 617, "74": 618, "Se": 619, "ca": 620, "edit": 621, "ler": 622, "ob": 623, "sto": 624, "ction": 625, "che": 626, "vers": 627, "://{{": 628, "ult": 629, "cmd": 630, "ow": 631, "ting": 632, "}}/": 633, "users": 634, "\\..\\..": 635, "26": 636, "Cimg": 637, "nd": 638, "rl": 639, "sub": 640, "ui": 641, "art": 642, "source": 643, "1111111111111111": 644, "--": 645, "/..": 646, "cal": 647, "ta": 648, "wor": 649, "order": 650, "}}?": 651, "session": 652, "tem": 653, "asp": 654, "windows": 655, "quest": 656, "work": 657, ").": 658, "64": 659, "date": 660, "ev": 661, "gn": 662, "num": 663, "per": 664, "sa": 665, "vlet": 666, "mat": 667, "}}&": 668, "255": 669, "options": 670, "cs": 671, "add": 672, "setting": 673, "board": 674, "10": 675, "=<": 676, "ay": 677, "ns": 678, "ner": 679, "ude": 680, "ator": 681, "lib": 682, "kie": 683, "EB": 684, "Id": 685, "ast": 686, "pon": 687, "rol": 688, "manager": 689, "true": 690, "User": 691, "ash": 692, "call": 693, "lin": 694, "pi": 695, "mode": 696, "aspx": 697, "AT": 698, "JO": 699, "RE": 700, "ive": 701, "ls": 702, "ot": 703, "okie": 704, "incl": 705, "cookie": 706, "query": 707, "settings": 708, "fun": 709, "lu": 710, "spa": 711, "ws": 712, "ype": 713, "scripts": 714, "res": 715, "ory": 716, "plate": 717, "fil": 718, "lic": 719, "ull": 720, "ample": 721, "fault": 722, "version": 723, "JOIN": 724, "include": 725, "af": 726, "ber": 727, "hel": 728, "is": 729, "mit": 730, "tion": 731, "ven": 732, "\u0120/{{": 733, "resource": 734, "request": 735, "count": 736, "text": 737, "eld": 738, "site": 739, "INF": 740, "dash": 741, "backup": 742, "),%": 743, "&_": 744, "63": 745, "AA": 746, "Fil": 747, "Page": 748, "cre": 749, "gra": 750, "he": 751, "if": 752, "null": 753, "tit": 754, "too": 755, "val": 756, "\u0120/_": 757, "regi": 758, "control": 759, "htm": 760, "password": 761, "export": 762, "uploads": 763, "www": 764, "dashboard": 765, "Filter": 766, "('": 767, "=\"": 768, "Csvg": 769, "Pro": 770, "WEB": 771, "fetc": 772, "io": 773, "ist": 774, "oast": 775, "rm": 776, "info": 777, "...%": 778, "start": 779, "secu": 780, "anima": 781, "files": 782, "rame": 783, "exe": 784, "izard": 785, "finder": 786, "stom": 787, "check": 788, "filter": 789, "animation": 790, "/..%": 791, "21": 792, "Ad": 793, "By": 794, "OM": 795, "Type": 796, "by": 797, "fro": 798, "go": 799, "je": 800, "nc": 801, "sort": 802, "dor": 803, "curl": 804, "gener": 805, "ateg": 806, "comm": 807, "Login": 808, "bug": 809, "template": 810, "event": 811, "vendor": 812, "+(": 813, "31": 814, "78": 815, "Ac": 816, "ND": 817, "ON": 818, "St": 819, "aw": 820, "be": 821, "df": 822, "ext": 823, "gr": 824, "gt": 825, "gall": 826, "ial": 827, "my": 828, "net": 829, "os": 830, "pr": 831, "uage": 832, "mand": 833, "pan": 834, "pack": 835, "col": 836, "low": 837, "custom": 838, "201": 839, "debug": 840, "pages": 841, "elfinder": 842, "face": 843, "host": 844, "next": 845, "images": 846, "ponent": 847, "title": 848, "16": 849, "ALL": 850, "Res": 851, "bi": 852, "fe": 853, "ft": 854, "ime": 855, "over": 856, "pri": 857, "rp": 858, "use": 859, "wh": 860, "word": 861, "wizard": 862, "xy": 863, "yle": 864, "int": 865, "style": 866, "core": 867, "default": 868, "ance": 869, "0000": 870, "username": 871, "union": 872, "ook": 873, "font": 874, "sign": 875, "language": 876, "manage": 877, "modules": 878, "gallery": 879, "({{": 880, "().": 881, "15": 882, "50": 883, "73": 884, ";/": 885, "='": 886, "=\"><": 887, "AM": 888, "CF": 889, "SS": 890, "UT": 891, "ain": 892, "css": 893, "categ": 894, "ff": 895, "fpasswd": 896, "sg": 897, "tm": 898, "report": 899, "ream": 900, "}}'": 901, "and": 902, "show": 903, "command": 904, "open": 905, "javascript": 906, "Cont": 907, "status": 908, "Search": 909, "includes": 910, "package": 911, "category": 912, "24": 913, "=-": 914, "HE": 915, "PUT": 916, "Runt": 917, "UR": 918, "Web": 919, "are": 920, "dy": 921, "foo": 922, "mber": 923, "od": 924, "put": 925, "pub": 926, "wd": 927, "we": 928, "inc": 929, "member": 930, "rest": 931, "active": 932, "servlet": 933, "appl": 934, "dia": 935, "conne": 936, "string": 937, "component": 938, "auto": 939, "IDE": 940, "cfm": 941, "node": 942, "tif": 943, "time": 944, "aaaa": 945, "=../../../../../../../": 946, "11111111111111111111111111111111": 947, "save": 948, "CFIDE": 949, "Runtime": 950, "AR": 951, "AND": 952, "Con": 953, "List": 954, "MS": 955, "Sy": 956, "gro": 957, "ker": 958, "var": 959, "meth": 960, "stall": 961, "ref": 962, "demo": 963, "profile": 964, "proxy": 965, "example": 966, "agent": 967, "the": 968, "setup": 969, "Service": 970, "Servlet": 971, "=../../../../../../../../../../": 972, "xxxx": 973, "services": 974, "classes": 975, "Session": 976, "help": 977, "tools": 978, "Admin": 979, "general": 980, "method": 981, "/_": 982, "/.%": 983, "17": 984, "18": 985, "32": 986, "36": 987, "60": 988, "=..%": 989, "AG": 990, "Aut": 991, "Ch": 992, "De": 993, "Get": 994, "Msg": 995, "]=": 996, "ght": 997, "job": 998, "ld": 999, "run": 1000, "su": 1001, "sup": 1002, "\u0120/%": 1003, "ere": 1004, "mess": 1005, "ader": 1006, "master": 1007, "ssions": 1008, "lock": 1009, "local": 1010, "ath": 1011, "field": 1012, "update": 1013, "conf": 1014, "logout": 1015, "Server": 1016, "preview": 1017, "access": 1018, "buil": 1019, "graph": 1020, "registr": 1021, "common": 1022, "connect": 1023, "+'": 1024, "61": 1025, "Fpasswd": 1026, "HT": 1027, "IT": 1028, "Ma": 1029, "PH": 1030, "Path": 1031, "Set": 1032, "UN": 1033, "WHE": 1034, "est": 1035, "ken": 1036, "sk": 1037, "phpun": 1038, "cus": 1039, "device": 1040, "firm": 1041, "sessions": 1042, "short": 1043, "ils": 1044, "ell": 1045, "pop": 1046, "webmail": 1047, "sol": 1048, "focus": 1049, "backend": 1050, "duct": 1051, "Log": 1052, "static": 1053, "--+": 1054, "ATE": 1055, "create": 1056, "value": 1057, "controller": 1058, "secure": 1059, "exec": 1060, "from": 1061, "ject": 1062, "URL": 1063, "group": 1064, "message": 1065, "phpunit": 1066, "(\"": 1067, "()": 1068, ")}}": 1069, ",%": 1070, "/../": 1071, "/../../../../../../../../": 1072, "123": 1073, "133": 1074, "30": 1075, "34": 1076, "69": 1077, ">&": 1078, "AD": 1079, "AP": 1080, "Action": 1081, "CS": 1082, "Data": 1083, "Ex": 1084, "Fetc": 1085, "Int": 1086, "Or": 1087, "PD": 1088, "SET": 1089, "av": 1090, "cation": 1091, "db": 1092, "ee": 1093, "ib": 1094, "ies": 1095, "pn": 1096, "pdf": 1097, "sn": 1098, "sw": 1099, "tar": 1100, "ud": 1101, "uri": 1102, "ine": 1103, "ins": 1104, "rid": 1105, "rix": 1106, "mag": 1107, "map": 1108, "mage": 1109, "rent": 1110, "cur": 1111, "ments": 1112, "arg": 1113, "}}-": 1114, "}}),": 1115, "ider": 1116, "lite": 1117, "fileName": 1118, "////": 1119, "confirm": 1120, "import": 1121, "imple": 1122, "product": 1123, "ics": 1124, "dag": 1125, "token": 1126, "endar": 1127, "\\..\\..\\..\\..": 1128, "calendar": 1129, "callback": 1130, "model": 1131, "Access": 1132, "print": 1133, "price": 1134, "rpc": 1135, "public": 1136, "activesessions": 1137, "tifact": 1138, "Config": 1139, "SessionID": 1140, ")+": 1141, "./": 1142, ":%": 1143, "=$": 1144, "=</": 1145, "?_": 1146, "Fi": 1147, "For": 1148, "ION": 1149, "Image": 1150, "ME": 1151, "ML": 1152, "No": 1153, "Url": 1154, "UPD": 1155, "Win": 1156, "XSS": 1157, "ax": 1158, "bs": 1159, "cial": 1160, "dalert": 1161, "gate": 1162, "lt": 1163, "lass": 1164, "oauth": 1165, "pert": 1166, "tation": 1167, "vc": 1168, "wid": 1169, "ze": 1170, "install": 1171, "..../": 1172, "onanimation": 1173, "media": 1174, "man": 1175, "eta": 1176, "pay": 1177, "ations": 1178, "dest": 1179, "entic": 1180, "artifact": 1181, "../../../../../": 1182, "contain": 1183, "rotation": 1184, "tens": 1185, "chan": 1186, "concat": 1187, "propert": 1188, "extens": 1189, "format": 1190, "oot": 1191, "portal": 1192, "msg": 1193, "redir": 1194, "Col": 1195, "Com": 1196, "table": 1197, "account": 1198, ")))": 1199, "editor": 1200, "--%": 1201, "function": 1202, "space": 1203, "resources": 1204, "feed": 1205, "components": 1206, "theme": 1207, "WHERE": 1208, "shortcode": 1209, "solr": 1210, "target": 1211, "UPDATE": 1212, "'+": 1213, "($": 1214, "()%": 1215, "68": 1216, "72": 1217, "77": 1218, "CO": 1219, "Di": 1220, "ER": 1221, "FR": 1222, "FS": 1223, "Finteract": 1224, "Man": 1225, "Per": 1226, "TF": 1227, "Vi": 1228, "][": 1229, "ag": 1230, "ant": 1231, "blog": 1232, "clo": 1233, "car": 1234, "cms": 1235, "dl": 1236, "dat": 1237, "ep": 1238, "fal": 1239, "ira": 1240, "ign": 1241, "jx": 1242, "jira": 1243, "mg": 1244, "mt": 1245, "ql": 1246, "rt": 1247, "ry": 1248, "simple": 1249, "tri": 1250, "ure": 1251, "wc": 1252, "wg": 1253, "\u0120{{": 1254, "rity": 1255, "ries": 1256, "remo": 1257, "para": 1258, "ors": 1259, "atta": 1260, "desc": 1261, "tems": 1262, "urn": 1263, "live": 1264, "limit": 1265, "jspa": 1266, "encode": 1267, "conso": 1268, "getP": 1269, "icro": 1270, "ask": 1271, "umb": 1272, "sys": 1273, "ube": 1274, "authentic": 1275, "3333": 1276, "oper": 1277, "press": 1278, "clients": 1279, "Input": 1280, "keyword": 1281, "cache": 1282, "line": 1283, "Stream": 1284, "andler": 1285, "apply": 1286, "HTML": 1287, "UNION": 1288, "popup": 1289, "Field": 1290, "Windows": 1291, "onanimationstart": 1292, "FROM": 1293, "false": 1294, "attach": 1295, "console": 1296, "InputStream": 1297, "\")": 1298, "',": 1299, "(),%": 1300, ")&": 1301, ")//": 1302, "+{{": 1303, ".\\..": 1304, "./..": 1305, "07": 1306, "13": 1307, "44": 1308, "AB": 1309, "DE": 1310, "Dx": 1311, "EP": 1312, "Job": 1313, "Met": 1314, "Op": 1315, "SLE": 1316, "Ut": 1317, "Wri": 1318, "\\\\": 1319, "assw": 1320, "bed": 1321, "book": 1322, "block": 1323, "ech": 1324, "email": 1325, "frame": 1326, "gN": 1327, "istr": 1328, "item": 1329, "kb": 1330, "ket": 1331, "nu": 1332, "ori": 1333, "pg": 1334, "sm": 1335, "sna": 1336, "ute": 1337, "wget": 1338, "\u0120/?": 1339, "..\\..": 1340, "dom": 1341, "ade": 1342, "ress": 1343, "atar": 1344, "gent": 1345, "entries": 1346, "play": 1347, "ary": 1348, "send": 1349, "contact": 1350, "context": 1351, "root": 1352, "rogN": 1353, "cher": 1354, "filemanager": 1355, "vis": 1356, "getWri": 1357, "verif": 1358, "mod": 1359, "inga": 1360, "ingType": 1361, "process": 1362, "itrix": 1363, "exper": 1364, "icinga": 1365, "webadmin": 1366, "able": 1367, "umn": 1368, "social": 1369, "size": 1370, "box": 1371, "Reader": 1372, "=../../../../../": 1373, ");%": 1374, "submit": 1375, "eval": 1376, "matt": 1377, "ashx": 1378, "link": 1379, "licy": 1380, "requests": 1381, "register": 1382, "FilteringType": 1383, "templates": 1384, "faces": 1385, "useover": 1386, "where": 1387, "anced": 1388, "1337": 1389, "widget": 1390, "..../..../": 1391, "properties": 1392, "View": 1393, "Open": 1394, "SLEEP": 1395, "assword": 1396, "istrator": 1397, "getWriter": 1398, "verify": 1399, "experi": 1400, "${": 1401, "12": 1402, "19": 1403, "37": 1404, "40": 1405, ";&": 1406, "Agent": 1407, "Bu": 1408, "CH": 1409, "CNULL": 1410, "Fonload": 1411, "Mo": 1412, "Opt": 1413, "Password": 1414, "Str": 1415, "Up": 1416, "Val": 1417, "YW": 1418, "ager": 1419, "bW": 1420, "bum": 1421, "bws": 1422, "cscript": 1423, "cmi": 1424, "dra": 1425, "dnew": 1426, "deta": 1427, "fscript": 1428, "flow": 1429, "gle": 1430, "goo": 1431, "hash": 1432, "ir": 1433, "ian": 1434, "icon": 1435, "items": 1436, "ke": 1437, "lab": 1438, "mpt": 1439, "micro": 1440, "ny": 1441, "non": 1442, "og": 1443, "ov": 1444, "ost": 1445, "ps": 1446, "psh": 1447, "ping": 1448, "ru": 1449, "rror": 1450, "sample": 1451, "tc": 1452, "ts": 1453, "tra": 1454, "turn": 1455, "vider": 1456, "wi": 1457, "err": 1458, "onmo": 1459, "album": 1460, "stream": 1461, "max": 1462, "ree": 1463, "real": 1464, "repo": 1465, "return": 1466, "par": 1467, "ssl": 1468, "mental": 1469, "gine": 1470, "geo": 1471, "200": 1472, "seo": 1473, "share": 1474, "shell": 1475, "plus": 1476, "chat": 1477, "nagi": 1478, "lity": 1479, "urls": 1480, "dir": 1481, "disc": 1482, "direct": 1483, "getRuntime": 1484, "useragent": 1485, "mob": 1486, "prompt": 1487, "forms": 1488, "forum": 1489, "ication": 1490, "asy": 1491, "window": 1492, "SER": 1493, "sym": 1494, "tests": 1495, "cfajax": 1496, "now": 1497, "xmlrpc": 1498, "hod": 1499, "ize": 1500, "Report": 1501, "qui": 1502, "versions": 1503, "}}/_": 1504, "ponse": 1505, "('{{": 1506, "Process": 1507, "security": 1508, "events": 1509, "color": 1510, "wizards": 1511, "tmui": 1512, "1111111111111111111111111111111111111111111111111111111111111111": 1513, "/.%%": 1514, "Auth": 1515, "PHP": 1516, "Order": 1517, "avatar": 1518, "current": 1519, "Manager": 1520, "authenticate": 1521, ".\\...\\..": 1522, "./.../..": 1523, "Method": 1524, "Util": 1525, "echo": 1526, "snapsh": 1527, "..\\....\\..": 1528, "experimental": 1529, "onmouseover": 1530, "nagios": 1531, "snapshot": 1532, "'='": 1533, "(/": 1534, "*%": 1535, "+-": 1536, "127": 1537, "50000": 1538, "79": 1539, "=(": 1540, "={": 1541, "?&": 1542, "AF": 1543, "Ap": 1544, "Arotation": 1545, "Ajx": 1546, "BIT": 1547, "Cre": 1548, "Dow": 1549, "Danimation": 1550, "EMS": 1551, "Error": 1552, "FI": 1553, "Handler": 1554, "IC": 1555, "Ii": 1556, "Im": 1557, "LET": 1558, "Mar": 1559, "OR": 1560, "PA": 1561, "PW": 1562, "Port": 1563, "Pop": 1564, "QB": 1565, "Sate": 1566, "Sub": 1567, "\\%": 1568, "aX": 1569, "aml": 1570, "bO": 1571, "bm": 1572, "bad": 1573, "bitrix": 1574, "cm": 1575, "ccess": 1576, "dP": 1577, "din": 1578, "eet": 1579, "ele": 1580, "ear": 1581, "fs": 1582, "fus": 1583, "gB": 1584, "gno": 1585, "hms": 1586, "hook": 1587, "ifi": 1588, "jo": 1589, "kins": 1590, "know": 1591, "la": 1592, "lp": 1593, "lar": 1594, "late": 1595, "lay": 1596, "llite": 1597, "nal": 1598, "nder": 1599, "oto": 1600, "oft": 1601, "off": 1602, "pm": 1603, "qq": 1604, "task": 1605, "vo": 1606, "vs": 1607, "vanced": 1608, "wa": 1609, "way": 1610, "xi": 1611, "\u0120src": 1612, "\u0120onerror": 1613, "dora": 1614, "online": 1615, "meta": 1616, "menu": 1617, "photo": 1618, "phpinfo": 1619, "advanced": 1620, "aly": 1621, "sta": 1622, "stdin": 1623, "mar": 1624, "reset": 1625, "review": 1626, "resp": 1627, "pass": 1628, "org": 1629, "ctor": 1630, "ctions": 1631, "atlass": 1632, "administrator": 1633, "gex": 1634, "deli": 1635, "pla": 1636, "}};": 1637, "}}/{{": 1638, "}}\"><": 1639, "sec": 1640, "analy": 1641, "sheet": 1642, "route": 1643, "uration": 1644, "ids": 1645, "lio": 1646, "lish": 1647, "pagename": 1648, "getInputStream": 1649, "ily": 1650, "indexFile": 1651, ":///": 1652, "eline": 1653, "policy": 1654, "range": 1655, "searchField": 1656, "views": 1657, "sync": 1658, "fail": 1659, "cfc": 1660, "cfg": 1661, "ditor": 1662, "home": 1663, "rection": 1664, "javax": 1665, "izer": 1666, "=../../../../../../../../../": 1667, "=../../../../../../../../../../../": 1668, "click": 1669, "mime": 1670, "ipeline": 1671, "store": 1672, "orderID": 1673, "workspace": 1674, "hello": 1675, "isPop": 1676, "iframe": 1677, "front": 1678, "goform": 1679, "sortBy": 1680, "sortDi": 1681, "grade": 1682, "panel": 1683, "pandora": 1684, "lower": 1685, "Response": 1686, "Sys": 1687, "Auto": 1688, "Default": 1689, "joborderID": 1690, "success": 1691, "build": 1692, "registrations": 1693, "Master": 1694, "Setup": 1695, "API": 1696, "png": 1697, "magmi": 1698, "container": 1699, "extensions": 1700, "PerPage": 1701, "close": 1702, "remote": 1703, "getPipeline": 1704, "JobOrder": 1705, "entriesPerPage": 1706, "OpenMar": 1707, "Option": 1708, "cmis": 1709, "google": 1710, "discover": 1711, "mobile": 1712, "BITEMS": 1713, "Create": 1714, "FILE": 1715, "LETE": 1716, "Satellite": 1717, "fusions": 1718, "respon": 1719, "atlassian": 1720, "isPopup": 1721, "sortDirection": 1722, "getPipelineJobOrder": 1723, "OpenMarket": 1724, "\",": 1725, "\">": 1726, ")}}&": 1727, "+/": 1728, "/../../../../": 1729, "/../../../": 1730, "14": 1731, "10000": 1732, "38": 1733, "425": 1734, "66": 1735, "70": 1736, "=;": 1737, "==": 1738, "?{{": 1739, "AE": 1740, "AS": 1741, "Au": 1742, "Ass": 1743, "BS": 1744, "Balert": 1745, "Ca": 1746, "FF": 1747, "GI": 1748, "GV": 1749, "Hel": 1750, "IFS": 1751, "Jj": 1752, "Key": 1753, "MET": 1754, "NAM": 1755, "OC": 1756, "Qu": 1757, "Sc": 1758, "TO": 1759, "TP": 1760, "The": 1761, "UI": 1762, "VE": 1763, "WP": 1764, "XJ": 1765, "Xce": 1766, "ZXJ": 1767, "ao": 1768, "aco": 1769, "bra": 1770, "boot": 1771, "cg": 1772, "cent": 1773, "cam": 1774, "csv": 1775, "dw": 1776, "dInt": 1777, "ealert": 1778, "fl": 1779, "fw": 1780, "ffi": 1781, "gz": 1782, "grid": 1783, "ha": 1784, "hi": 1785, "hex": 1786, "hax": 1787, "ight": 1788, "kube": 1789, "ly": 1790, "mp": 1791, "mon": 1792, "nf": 1793, "nx": 1794, "ous": 1795, "ource": 1796, "pj": 1797, "py": 1798, "por": 1799, "plo": 1800, "sb": 1801, "sf": 1802, "sap": 1803, "td": 1804, "tid": 1805, "vm": 1806, "vert": 1807, "wB": 1808, "wl": 1809, "woo": 1810, "who": 1811, "xwork": 1812, "year": 1813, "zs": 1814, "}&": 1815, "\u0120?": 1816, "\u0120http": 1817, "\u0120//": 1818, "\u0120/..": 1819, "\u0120/..%": 1820, "one": 1821, "onfocus": 1822, "adm": 1823, "alog": 1824, "stic": 1825, "rea": 1826, "red": 1827, "reg": 1828, "repe": 1829, "render": 1830, "pat": 1831, "les": 1832, "location": 1833, "minim": 1834, "descript": 1835, "defin": 1836, "decode": 1837, "fire": 1838, "}}}}": 1839, "}}+-": 1840, "secre": 1841, "tes": 1842, "ters": 1843, "light": 1844, "//%": 1845, "281": 1846, "via": 1847, "visu": 1848, "000": 1849, "001": 1850, "jsmo": 1851, "git": 1852, "engine": 1853, "convert": 1854, "cke": 1855, "very": 1856, "archive": 1857, "point": 1858, "random": 1859, "und": 1860, "uncher": 1861, "undefin": 1862, "oooo": 1863, "thumb": 1864, "../../../../../../../../../../../": 1865, "logs": 1866, "viewer": 1867, "amp": 1868, "cfclient": 1869, "not": 1870, "downloads": 1871, "ditty": 1872, "Code": 1873, "=../../../../../../": 1874, "apps": 1875, ");//": 1876, "Index": 1877, "stats": 1878, "cause": 1879, "ows": 1880, "/..;/": 1881, "orderby": 1882, "dateCreate": 1883, "func": 1884, "functions": 1885, "lua": 1886, "spam": 1887, "result": 1888, "sitemap": 1889, "AAAA": 1890, "Pages": 1891, "tool": 1892, "valid": 1893, "ByName": 1894, "Stat": 1895, "bility": 1896, "signin": 1897, "signup": 1898, "reports": 1899, "openid": 1900, "Content": 1901, "application": 1902, "diagno": 1903, "autofocus": 1904, "System": 1905, "examples": 1906, "support": 1907, "builder": 1908, "jects": 1909, "CSCO": 1910, "swag": 1911, "Format": 1912, "gateway": 1913, "change": 1914, "themes": 1915, "dll": 1916, "mgmt": 1917, "params": 1918, "operation": 1919, "attachment": 1920, "','": 1921, "framework": 1922, "CHAR": 1923, "String": 1924, "Upload": 1925, "details": 1926, "nonce": 1927, "ovL": 1928, "realms": 1929, "nagiosxi": 1930, "Download": 1931, "launcher": 1932, "voker": 1933, "fusionsoft": 1934, "response": 1935, "42523": 1936, "META": 1937, "NAME": 1938, "repeat": 1939, "visual": 1940, "jsmol": 1941, "undefined": 1942, "dateCreatedInt": 1943, "swagger": 1944, "\"%": 1945, "\"&": 1946, "&\"><": 1947, "(/{{": 1948, "39": 1949, "55": 1950, "56": 1951, "75": 1952, "76": 1953, "95": 1954, "96": 1955, ":/": 1956, "=+": 1957, "=../../../": 1958, ">%": 1959, "AC": 1960, "AI": 1961, "AJ": 1962, "AV": 1963, "AX": 1964, "ACS": 1965, "BO": 1966, "BX": 1967, "CR": 1968, "Cli": 1969, "Cmd": 1970, "CAT": 1971, "COM": 1972, "CON": 1973, "CVE": 1974, "Dnew": 1975, "DEB": 1976, "DovL": 1977, "EM": 1978, "GF": 1979, "Gen": 1980, "HR": 1981, "Ht": 1982, "Hash": 1983, "Is": 1984, "NT": 1985, "NY": 1986, "Ny": 1987, "Net": 1988, "OA": 1989, "Oi": 1990, "PC": 1991, "Pt": 1992, "Plu": 1993, "Preview": 1994, "Root": 1995, "To": 1996, "Tem": 1997, "UG": 1998, "Un": 1999, "Wa": 2000, "Zm": 2001, "[]": 2002, "apt": 2003, "ava": 2004, "aHR": 2005, "bt": 2006, "bon": 2007, "bar": 2008, "bwg": 2009, "blio": 2010, "cc": 2011, "cd": 2012, "ci": 2013, "cn": 2014, "cy": 2015, "cle": 2016, "cert": 2017, "cid": 2018, "cimg": 2019, "card": 2020, "cDovL": 2021, "dx": 2022, "dup": 2023, "ddy": 2024, "ess": 2025, "easy": 2026, "gh": 2027, "got": 2028, "glish": 2029, "her": 2030, "ix": 2031, "ipl": 2032, "jpg": 2033, "ks": 2034, "ky": 2035, "mgr": 2036, "nsp": 2037, "ok": 2038, "om": 2039, "pb": 2040, "rary": 2041, "son": 2042, "ton": 2043, "tml": 2044, "tran": 2045, "uator": 2046, "vpn": 2047, "wri": 2048, "wbm": 2049, "xl": 2050, "xm": 2051, "xss": 2052, "yes": 2053, "za": 2054, "zim": 2055, "ztd": 2056, "\u0120-": 2057, "inPassword": 2058, "eral": 2059, "ered": 2060, "erface": 2061, "doctor": 2062, "step": 2063, "mac": 2064, "make": 2065, "reen": 2066, "requi": 2067, "pac": 2068, "parame": 2069, "paign": 2070, "sso": 2071, "locall": 2072, "cute": 2073, "atform": 2074, "ging": 2075, "genx": 2076, "223": 2077, "2021": 2078, "dev": 2079, "delet": 2080, "pli": 2081, "plet": 2082, "plic": 2083, "platform": 2084, "ses": 2085, "acti": 2086, "actuator": 2087, "shar": 2088, "shop": 2089, "ship": 2090, "shtml": 2091, "row": 2092, "chr": 2093, "char": 2094, "urve": 2095, "idp": 2096, "navi": 2097, "//{{": 2098, "vide": 2099, "vicon": 2100, "upgrade": 2101, "jsf": 2102, "util": 2103, "ence": 2104, "english": 2105, "dio": 2106, "dis": 2107, "div": 2108, "dispa": 2109, "mlflow": 2110, "getC": 2111, "moo": 2112, "actions": 2113, "ition": 2114, "rab": 2115, "raw": 2116, "searched": 2117, "searchCol": 2118, "searchOption": 2119, "forName": 2120, "thir": 2121, "icle": 2122, "website": 2123, "esp": 2124, "=&_": 2125, "ami": 2126, "amily": 2127, "soft": 2128, "fol": 2129, "embed": 2130, "uploader": 2131, "noti": 2132, "notif": 2133, "top": 2134, "duplic": 2135, "NameRe": 2136, "database": 2137, "postids": 2138, "servers": 2139, "lector": 2140, "endpoint": 2141, "=../../../../../../../../../../../../": 2142, "=../../../../../../../../../../../../../": 2143, "Load": 2144, "Request": 2145, "xxx": 2146, "migr": 2147, "option": 2148, ")).": 2149, "))+%": 2150, "buddy": 2151, "quiz": 2152, ")>/..": 2153, "find": 2154, "ipp": 2155, "Info": 2156, "Install": 2157, "queue": 2158, "lerate": 2159, "cmdb": 2160, "tings": 2161, "number": 2162, "person": 2163, "addr": 2164, "roller": 2165, "Username": 2166, "pict": 2167, "backups": 2168, "gram": 2169, "header": 2170, "Provider": 2171, "execute": 2172, "Account": 2173, "awredir": 2174, "awstats": 2175, "network": 2176, "column": 2177, "hostname": 2178, "Reset": 2179, "biblio": 2180, "what": 2181, "wordpress": 2182, "wizarduser": 2183, "wizardHash": 2184, "tmp": 2185, "}}'),": 2186, "Context": 2187, "Controller": 2188, "dyzs": 2189, "memberAccess": 2190, "autodiscover": 2191, "aaaaaaaa": 2192, "ListManager": 2193, "xxxxxxxx": 2194, "AGE": 2195, "ldap": 2196, "runs": 2197, "runner": 2198, "fields": 2199, "connector": 2200, "Settings": 2201, "ella": 2202, "(\"{{": 2203, "/..//../": 2204, "Export": 2205, "Interface": 2206, "ible": 2207, "snipl": 2208, "snipp": 2209, "insert": 2210, "////////": 2211, "products": 2212, "payload": 2213, "contains": 2214, "extension": 2215, "Collector": 2216, "accounts": 2217, "7774": 2218, "datas": 2219, "rypt": 2220, "param": 2221, "DELETE": 2222, "Viewer": 2223, "Valid": 2224, "draft": 2225, "icons": 2226, "microsoft": 2227, "ostname": 2228, "wiki": 2229, "party": 2230, "forumrunner": 2231, "SERV": 2232, "authenticatewizarduser": 2233, "MethodAccess": 2234, "Iiwg": 2235, "Submit": 2236, "dPPt": 2237, "element": 2238, "hooks": 2239, "ification": 2240, "latest": 2241, "delivery": 2242, "place": 2243, "FILES": 2244, "Keys": 2245, "Query": 2246, "Script": 2247, "Xcelerate": 2248, "acoa": 2249, "whoami": 2250, "AJAX": 2251, "Client": 2252, "CONCAT": 2253, "DEBUG": 2254, "General": 2255, "Http": 2256, "Plugin": 2257, "RootURL": 2258, "Template": 2259, "Wait": 2260, "kylin": 2261, "write": 2262, "zimbra": 2263, "require": 2264, "parameters": 2265, "locallb": 2266, "genxor": 2267, "delete": 2268, "urvey": 2269, "navigate": 2270, "dispat": 2271, "searchColumn": 2272, "third": 2273, "NameRegex": 2274, "migrate": 2275, "bibliopac": 2276, "sniplets": 2277, "!--": 2278, "\":": 2279, "\";": 2280, "$(": 2281, "&&": 2282, "')%": 2283, "');//": 2284, "(@": 2285, ")-": 2286, ")}}.": 2287, ")\"><": 2288, ")\">": 2289, "**%": 2290, "+--+": 2291, "+=+": 2292, "/*": 2293, "/.": 2294, "/<": 2295, "/../../": 2296, "/)</": 2297, "/\"><": 2298, "/;/": 2299, "/../../../../../": 2300, "01": 2301, "100": 2302, "35": 2303, "45": 2304, "400": 2305, "54": 2306, "62": 2307, "727": 2308, "769": 2309, "707": 2310, "80": 2311, "86": 2312, "98": 2313, ";%": 2314, ";?": 2315, "<%": 2316, "<>": 2317, "=|": 2318, "=..": 2319, "=../": 2320, "=../../": 2321, "=//": 2322, ">?": 2323, "AZ": 2324, "Ab": 2325, "Am": 2326, "At": 2327, "Ajax": 2328, "AIN": 2329, "Ada": 2330, "Any": 2331, "CA": 2332, "CE": 2333, "Cat": 2334, "Coo": 2335, "Cwin": 2336, "Che": 2337, "CMS": 2338, "CWindows": 2339, "DB": 2340, "DOM": 2341, "DOC": 2342, "EW": 2343, "En": 2344, "Ey": 2345, "Ez": 2346, "END": 2347, "Fs": 2348, "Fin": 2349, "GL": 2350, "GM": 2351, "Grab": 2352, "Hostname": 2353, "LP": 2354, "Main": 2355, "OB": 2356, "On": 2357, "PL": 2358, "PR": 2359, "Pg": 2360, "Pr": 2361, "Post": 2362, "RPC": 2363, "SQ": 2364, "So": 2365, "Skins": 2366, "Th": 2367, "Tr": 2368, "Tra": 2369, "TIT": 2370, "Test": 2371, "Tree": 2372, "Vud": 2373, "Wp": 2374, "Wizard": 2375, "XX": 2376, "Zy": 2377, "[%": 2378, "__": 2379, "`%": 2380, "ai": 2381, "au": 2382, "ari": 2383, "asc": 2384, "aalert": 2385, "aho": 2386, "bb": 2387, "bc": 2388, "bg": 2389, "ble": 2390, "ban": 2391, "but": 2392, "brand": 2393, "bGV": 2394, "cr": 2395, "cwin": 2396, "cwindows": 2397, "cors": 2398, "crypt": 2399, "dC": 2400, "dk": 2401, "ds": 2402, "dms": 2403, "dum": 2404, "dCh": 2405, "eat": 2406, "ecg": 2407, "fg": 2408, "fu": 2409, "fan": 2410, "flu": 2411, "family": 2412, "gg": 2413, "gl": 2414, "gu": 2415, "gger": 2416, "gui": 2417, "hu": 2418, "hass": 2419, "handler": 2420, "hdw": 2421, "hbGV": 2422, "ig": 2423, "iss": 2424, "ipe": 2425, "jk": 2426, "jquery": 2427, "lg": 2428, "ln": 2429, "lider": 2430, "mx": 2431, "mur": 2432, "mid": 2433, "nel": 2434, "nets": 2435, "oc": 2436, "ox": 2437, "our": 2438, "ope": 2439, "omy": 2440, "offi": 2441, "pP": 2442, "pp": 2443, "pu": 2444, "pw": 2445, "pme": 2446, "pma": 2447, "pid": 2448, "pserver": 2449, "qs": 2450, "rf": 2451, "rw": 2452, "ring": 2453, "rvm": 2454, "sq": 2455, "sph": 2456, "sma": 2457, "swp": 2458, "sid": 2459, "sing": 2460, "sms": 2461, "sql": 2462, "survey": 2463, "tt": 2464, "tw": 2465, "tal": 2466, "tty": 2467, "tics": 2468, "tube": 2469, "tree": 2470, "usc": 2471, "ual": 2472, "uch": 2473, "uid": 2474, "usr": 2475, "ures": 2476, "vr": 2477, "vel": 2478, "wm": 2479, "wt": 2480, "ware": 2481, "xh": 2482, "xhtml": 2483, "xible": 2484, "ysa": 2485, "ydCh": 2486, "zc": 2487, "zer": 2488, "};": 2489, "});": 2490, "ink": 2491, "inte": 2492, "invi": 2493, "init": 2494, "insta": 2495, "invoker": 2496, "infusionsoft": 2497, "\u0120/+": 2498, "\u0120/.": 2499, "\u0120//{{": 2500, "\u0120/.%": 2501, "erm": 2502, "ers": 2503, "erer": 2504, "erce": 2505, "ervis": 2506, "nto": 2507, "ntis": 2508, "doc": 2509, "ony": 2510, "only": 2511, "phony": 2512, "adapt": 2513, "pter": 2514, "scri": 2515, "allow": 2516, "stop": 2517, "stude": 2518, "stics": 2519, "stamp": 2520, "maven": 2521, "mask": 2522, "mantis": 2523, "resh": 2524, "rewe": 2525, "pagin": 2526, "parent": 2527, "pability": 2528, "oring": 2529, "orator": 2530, "orByName": 2531, "cos": 2532, "cover": 2533, "ssh": 2534, "lead": 2535, "level": 2536, "lexible": 2537, "lob": 2538, "loki": 2539, "look": 2540, "atch": 2541, "atmail": 2542, "atom": 2543, "adminim": 2544, "alerts": 2545, "alertlist": 2546, "208": 2547, "2023": 2548, "maint": 2549, "dec": 2550, "del": 2551, "design": 2552, "deny": 2553, "entry": 2554, "plan": 2555, "plain": 2556, "fix": 2557, "}})": 2558, "}}\")": 2559, "section": 2560, "ani": 2561, "any": 2562, "ansph": 2563, "serv": 2564, "roy": 2565, "cee": 2566, "cept": 2567, "team": 2568, "cha": 2569, "271": 2570, "ternal": 2571, "nam": 2572, "nacos": 2573, "liti": 2574, "filepath": 2575, "///": 2576, "vious": 2577, "give": 2578, "utils": 2579, "enkins": 2580, "091": 2581, "atever": 2582, "/?=&": 2583, "interface": 2584, "internal": 2585, "constr": 2586, "ajaxHandler": 2587, "cker": 2588, "getid": 2589, "verification": 2590, "mote": 2591, "moset": 2592, "apisi": 2593, "ild": 2594, "impor": 2595, "elFin": 2596, "ings": 2597, "txtSearch": 2598, "poc": 2599, "pom": 2600, "pot": 2601, "proc": 2602, "prod": 2603, "project": 2604, "provider": 2605, "ital": 2606, "external": 2607, "forgot": 2608, "webapp": 2609, "webtools": 2610, "webshell": 2611, "webproc": 2612, "></": 2613, "about": 2614, "syspa": 2615, "clansph": 2616, "imate": 2617, "faile": 2618, "author": 2619, "ING": 2620, "cff": 2621, "\\..\\": 2622, "downloader": 2623, "tipo": 2624, "=/../../": 2625, "xmlpserver": 2626, "hosp": 2627, "ops": 2628, "aaa": 2629, "body": 2630, "ization": 2631, "pretty": 2632, "prefix": 2633, "previous": 2634, "=../../../../../../../../../../../../../../../../": 2635, "Local": 2636, "Read": 2637, "Regi": 2638, "Remote": 2639, "miter": 2640, "mifs": 2641, "tabella": 2642, "mailbox": 2643, "6563": 2644, "65727": 2645, "Files": 2646, "acs": 2647, "))&": 2648, "output": 2649, "selector": 2650, "news": 2651, ");</": 2652, ")>?": 2653, "final": 2654, "spring": 2655, "cations": 2656, "catalog": 2657, "742": 2658, "7422": 2659, "canto": 2660, "editclient": 2661, "obcs": 2662, "objects": 2663, "ultimate": 2664, "}}/)%": 2665, "\\..\\..\\": 2666, "subscri": 2667, "/..../": 2668, "tag": 2669, "6469": 2670, "match": 2671, "matic": 2672, "nsroot": 2673, "library": 2674, "UserValid": 2675, "lines": 2676, "pie": 2677, "picker": 2678, "RES": 2679, "luence": 2680, "lucee": 2681, "backupbuddy": 2682, "636": 2683, "titan": 2684, "Project": 2685, "WEBAC": 2686, "checklist": 2687, "bynet": 2688, "jeecg": 2689, "ategy": 2690, "commerce": 2691, "LoginUser": 2692, "awed": 2693, "begin": 2694, "dfsms": 2695, "pany": 2696, "panda": 2697, "Resource": 2698, "feat": 2699, "whatever": 2700, "fonts": 2701, "management": 2702, "73636": 2703, "=';": 2704, "ffff": 2705, "ffered": 2706, "opensym": 2707, "Contact": 2708, "WebInterface": 2709, "wddx": 2710, "membership": 2711, "aaaaa": 2712, "kerbynet": 2713, "referer": 2714, "refresh": 2715, "demos": 2716, "ServletResponse": 2717, "/__": 2718, "Char": 2719, "Device": 2720, "GetFile": 2721, "ldGM": 2722, "supervis": 2723, "locale": 2724, "updatexml": 2725, "confluence": 2726, "registration": 2727, "HTTP": 2728, "ITY": 2729, "PHN": 2730, "UNT": 2731, "skysa": 2732, "Logon": 2733, "values": 2734, "messages": 2735, "Org": 2736, "avel": 2737, "ridxm": 2738, "maps": 2739, "args": 2740, "dags": 2741, "\\..\\..\\..\\..\\..\\..\\..\\..": 2742, "println": 2743, "axis": 2744, "vcac": 2745, "vcGF": 2746, "installer": 2747, "destin": 2748, "channel": 2749, "Component": 2750, "spaces": 2751, "COUNT": 2752, "antani": 2753, "cloud": 2754, "carbon": 2755, "trigger": 2756, "33333333": 2757, "attachments": 2758, "InputStreamReader": 2759, "booking": 2760, "blocks": 2761, "origin": 2762, "dompdf": 2763, "player": 2764, "playlist": 2765, "widgets": 2766, "..../..../..../..../": 2767, "404": 2768, "Buffered": 2769, "Value": 2770, "bWVud": 2771, "label": 2772, "ruid": 2773, "track": 2774, "repos": 2775, "returnFormat": 2776, "geoserver": 2777, "quick": 2778, "11111111111111111111111111111111111111111111111111111111111111111111111111111111111111111111111111111111111111111111111111111111": 2779, ".\\...\\...\\...\\..": 2780, "./.../.../.../..": 2781, "..\\....\\....\\....\\..": 2782, "={\"": 2783, "App": 2784, "Appl": 2785, "PWReset": 2786, "Portal": 2787, "aXB": 2788, "joloki": 2789, "known": 2790, "laravel": 2791, "layout": 2792, "offset": 2793, "qqq": 2794, "tasks": 2795, "marmoset": 2796, "analytics": 2797, "analyzer": 2798, "routes": 2799, "mimeType": 2800, "frontend": 2801, "SysLoginUser": 2802, "cmisatom": 2803, "Assets": 2804, "Help": 2805, "Theme": 2806, "center": 2807, "campaign": 2808, "flash": 2809, "haW": 2810, "monit": 2811, "ploy": 2812, "sfwd": 2813, "tidio": 2814, "minimizer": 2815, "descriptorByName": 2816, "firework": 2817, "secret": 2818, "validate": 2819, "diagnostics": 2820, "CSCOE": 2821, "repeater": 2822, "visualizer": 2823, "7665727": 2824, "ACSServer": 2825, "NyaXB": 2826, "hero": 2827, "tons": 2828, "trans": 2829, "sharing": 2830, "video": 2831, "moove": 2832, "folder": 2833, "notifi": 2834, "notify": 2835, "duplicator": 2836, "Requests": 2837, "headers": 2838, "snippets": 2839, "dataset": 2840, "SERVER": 2841, "elementor": 2842, "QueryComponent": 2843, "HttpServletResponse": 2844, "dispatcher": 2845, "thirdparty": 2846, "\":\"": 2847, "70726": 2848, "Adapter": 2849, "Cookie": 2850, "Check": 2851, "DOMAIN": 2852, "FsZXJ": 2853, "Printer": 2854, "Solar": 2855, "True": 2856, "TITLE": 2857, "WpOrg": 2858, "buttons": 2859, "crud": 2860, "dump": 2861, "fuel": 2862, "flush": 2863, "glpi": 2864, "hassio": 2865, "hbGVydCh": 2866, "ourphp": 2867, "single": 2868, "instagram": 2869, "adaptive": 2870, "student": 2871, "adminimize": 2872, "lities": 2873, "constru": 2874, "ajaxHandlers": 2875, "apisix": 2876, "elFinder": 2877, "sysparm": 2878, "clansphere": 2879, "failed": 2880, "hospital": 2881, "6563742": 2882, "646973636": 2883, "UserValidation": 2884, "WEBACCOUNT": 2885, "opensymphony": 2886, "ldGMvcGF": 2887, "supervisor": 2888, "BufferedReader": 2889, "bWVudC": 2890, "PWResetUserValidation": 2891, "jolokia": 2892, "766572795": 2893, "hbGVydChkb": 2894, "ldGMvcGFzc": 2895, "\"+": 2896, "\"/": 2897, "\"}&": 2898, "$%": 2899, "&%": 2900, "&=&": 2901, "'%": 2902, "'}": 2903, "'}}": 2904, "'><": 2905, "').": 2906, "(),": 2907, ")\\": 2908, ")--+": 2909, "*'": 2910, "*{{": 2911, "+[": 2912, "+__": 2913, ",(": 2914, ",+": 2915, ".{{": 2916, "/-": 2917, "/;": 2918, "/./": 2919, "04": 2920, "05": 2921, "064": 2922, "122": 2923, "131": 2924, "328": 2925, "41": 2926, "47": 2927, "48": 2928, "417": 2929, "438": 2930, "52": 2931, "500": 2932, "523": 2933, "574": 2934, "616": 2935, "71": 2936, "91": 2937, "99": 2938, "917": 2939, "::": 2940, ":${": 2941, ";;": 2942, "<@": 2943, "=*": 2944, "=@": 2945, "=\\": 2946, "=_": 2947, "=`": 2948, "=...%": 2949, ">/": 2950, ">/?": 2951, "?%": 2952, "?/%": 2953, "AH": 2954, "AL": 2955, "AQ": 2956, "AU": 2957, "Ar": 2958, "Aaw": 2959, "Alive": 2960, "Anon": 2961, "Async": 2962, "BC": 2963, "BR": 2964, "BT": 2965, "BLE": 2966, "BID": 2967, "Bnc": 2968, "Block": 2969, "Bib": 2970, "BTO": 2971, "BBO": 2972, "Brow": 2973, "Cr": 2974, "Cu": 2975, "Card": 2976, "Ctitle": 2977, "CALL": 2978, "CAM": 2979, "CUR": 2980, "CWeb": 2981, "Class": 2982, "Cute": 2983, "CGI": 2984, "CCHAR": 2985, "Cdiv": 2986, "DI": 2987, "DY": 2988, "Dn": 2989, "Den": 2990, "Deb": 2991, "Dash": 2992, "Dial": 2993, "Deta": 2994, "Duration": 2995, "EK": 2996, "EL": 2997, "Ext": 2998, "Email": 2999, "Esample": 3000, "Editor": 3001, "ENT": 3002, "FT": 3003, "Fa": 3004, "Fh": 3005, "Fo": 3006, "Fimg": 3007, "Fwww": 3008, "Frame": 3009, "FmemberAccess": 3010, "FXcelerate": 3011, "Feat": 3012, "Flexible": 3013, "FRES": 3014, "GR": 3015, "Gfi": 3016, "Gator": 3017, "GGL": 3018, "Ggg": 3019, "HJ": 3020, "HQ": 3021, "HOST": 3022, "Hook": 3023, "IS": 3024, "IV": 3025, "Ip": 3026, "Img": 3027, "Items": 3028, "Jd": 3029, "Jenkins": 3030, "KT": 3031, "Kee": 3032, "LD": 3033, "LO": 3034, "Ly": 3035, "Lay": 3036, "Last": 3037, "Light": 3038, "MI": 3039, "MT": 3040, "Mg": 3041, "Map": 3042, "Mem": 3043, "Mob": 3044, "Micro": 3045, "NO": 3046, "New": 3047, "Not": 3048, "NEW": 3049, "OK": 3050, "OO": 3051, "Ok": 3052, "One": 3053, "PE": 3054, "PT": 3055, "Ph": 3056, "Po": 3057, "Pri": 3058, "Par": 3059, "Pub": 3060, "PAT": 3061, "PAR": 3062, "PLETE": 3063, "POB": 3064, "RC": 3065, "Ro": 3066, "Ren": 3067, "Rta": 3068, "Rows": 3069, "ROO": 3070, "SC": 3071, "SO": 3072, "Sa": 3073, "Si": 3074, "Sho": 3075, "SAM": 3076, "Simple": 3077, "Sign": 3078, "Saml": 3079, "SAPI": 3080, "TT": 3081, "Tab": 3082, "Time": 3083, "THE": 3084, "Task": 3085, "Term": 3086, "US": 3087, "Uid": 3088, "UID": 3089, "USER": 3090, "Vers": 3091, "WS": 3092, "We": 3093, "Wee": 3094, "WFS": 3095, "WOR": 3096, "XQ": 3097, "Xml": 3098, "YPE": 3099, "ZG": 3100, "ZT": 3101, "Zd": 3102, "ZMsg": 3103, "ZGV": 3104, "[]=": 3105, "]%": 3106, "]=%": 3107, "],%": 3108, "_{{": 3109, "`;": 3110, "`\\%": 3111, "ah": 3112, "az": 3113, "ama": 3114, "apa": 3115, "ase": 3116, "aid": 3117, "ams": 3118, "aws": 3119, "bN": 3120, "bro": 3121, "bel": 3122, "bul": 3123, "bang": 3124, "bCSCOE": 3125, "cad": 3126, "cst": 3127, "cet": 3128, "cfi": 3129, "cro": 3130, "cml": 3131, "cinteract": 3132, "cing": 3133, "csr": 3134, "cas": 3135, "cab": 3136, "cfo": 3137, "cda": 3138, "cart": 3139, "crm": 3140, "ccss": 3141, "ccms": 3142, "cpanel": 3143, "canalyzer": 3144, "did": 3145, "dhttp": 3146, "ding": 3147, "dba": 3148, "dns": 3149, "dpr": 3150, "dress": 3151, "dtid": 3152, "druid": 3153, "ef": 3154, "ecu": 3155, "ecgi": 3156, "eper": 3157, "econfirm": 3158, "eDB": 3159, "fb": 3160, "fd": 3161, "fy": 3162, "fer": 3163, "fri": 3164, "fact": 3165, "fname": 3166, "fall": 3167, "full": 3168, "gw": 3169, "gad": 3170, "gap": 3171, "gup": 3172, "gue": 3173, "gments": 3174, "gress": 3175, "green": 3176, "glob": 3177, "hsp": 3178, "hls": 3179, "hand": 3180, "href": 3181, "hanced": 3182, "hicle": 3183, "hmaps": 3184, "ia": 3185, "ie": 3186, "ity": 3187, "ied": 3188, "ibe": 3189, "iwc": 3190, "ilities": 3191, "jb": 3192, "jplayer": 3193, "jcml": 3194, "ku": 3195, "kv": 3196, "kin": 3197, "kub": 3198, "kery": 3199, "kings": 3200, "ll": 3201, "lon": 3202, "lat": 3203, "lms": 3204, "last": 3205, "mF": 3206, "mc": 3207, "mer": 3208, "mstr": 3209, "mul": 3210, "mgt": 3211, "mviewer": 3212, "mmur": 3213, "nV": 3214, "ng": 3215, "ni": 3216, "nm": 3217, "nse": 3218, "nweb": 3219, "nance": 3220, "nMsg": 3221, "of": 3222, "oem": 3223, "old": 3224, "pH": 3225, "pf": 3226, "pent": 3227, "ppro": 3228, "pbW": 3229, "pInfo": 3230, "pAlive": 3231, "qcu": 3232, "qmc": 3233, "rs": 3234, "rad": 3235, "rst": 3236, "rat": 3237, "rsv": 3238, "rdP": 3239, "rExt": 3240, "sst": 3241, "spl": 3242, "sum": 3243, "sam": 3244, "sac": 3245, "sition": 3246, "tn": 3247, "tin": 3248, "tpl": 3249, "tut": 3250, "ug": 3251, "ule": 3252, "ums": 3253, "uster": 3254, "vx": 3255, "vate": 3256, "vul": 3257, "vbm": 3258, "vCode": 3259, "war": 3260, "wel": 3261, "wms": 3262, "wfo": 3263, "ward": 3264, "wls": 3265, "wBy": 3266, "wsecure": 3267, "wvc": 3268, "xaml": 3269, "yg": 3270, "yo": 3271, "yu": 3272, "yns": 3273, "ybe": 3274, "yous": 3275, "zb": 3276, "zi": 3277, "zm": 3278, "zlo": 3279, "zion": 3280, "zab": 3281, "zul": 3282, "zip": 3283, "zaX": 3284, "zgz": 3285, "zone": 3286, "{'": 3287, "}\"": 3288, "\u00e9\u012e": 3289, "\u0120\"": 3290, "\u01205": 3291, "inf": 3292, "inpost": 3293, "input": 3294, "informat": 3295, "\u0120/../../../../../../../../": 3296, "ernet": 3297, "erValue": 3298, "nth": 3299, "ntp": 3300, "don": 3301, "dons": 3302, "doku": 3303, "onar": 3304, "onob": 3305, "onclick": 3306, "mes": 3307, "met": 3308, "metr": 3309, "mechan": 3310, "metri": 3311, "rica": 3312, "rimg": 3313, "phpfa": 3314, "phpmail": 3315, "phpmy": 3316, "adata": 3317, "addons": 3318, "ptcha": 3319, "scp": 3320, "scan": 3321, "screen": 3322, "als": 3323, "alth": 3324, "stre": 3325, "state": 3326, "stage": 3327, "staf": 3328, "stcache": 3329, "stAPI": 3330, "strea": 3331, "maker": 3332, "masta": 3333, "maybe": 3334, "resto": 3335, "renc": 3336, "revs": 3337, "regex": 3338, "recent": 3339, "replace": 3340, "ety": 3341, "etMa": 3342, "paid": 3343, "pause": 3344, "part": 3345, "passt": 3346, "orer": 3347, "orter": 3348, "come": 3349, "cour": 3350, "coding": 3351, "ssary": 3352, "leg": 3353, "lemetr": 3354, "loc": 3355, "lossary": 3356, "cube": 3357, "curity": 3358, "wpda": 3359, "wpbase": 3360, "wpjob": 3361, "wpsolr": 3362, "wpcar": 3363, "ming": 3364, "minio": 3365, "STATE": 3366, "STER": 3367, "admins": 3368, "adminapi": 3369, "alertLight": 3370, "222": 3371, "228": 3372, "2022": 3373, "2020": 3374, "2032": 3375, "mainte": 3376, "documentor": 3377, "documentcloud": 3378, "dent": 3379, "dede": 3380, "desk": 3381, "deploy": 3382, "pler": 3383, "plID": 3384, "plorer": 3385, "fic": 3386, "arty": 3387, "arprice": 3388, "}}\\": 3389, "}}{{": 3390, "}})%": 3391, "}}/?": 3392, "}}*{{": 3393, "}}:${": 3394, "sel": 3395, "segments": 3396, "acter": 3397, "ange": 3398, "serial": 3399, "pluginscript": 3400, "ted": 3401, "tex": 3402, "tect": 3403, "teams": 3404, "telemetr": 3405, "chi": 3406, "ched": 3407, "champ": 3408, "urations": 3409, "2710": 3410, "idc": 3411, "tern": 3412, "terep": 3413, "navis": 3414, "lide": 3415, "lice": 3416, "limiter": 3417, "fileview": 3418, "fileserver": 3419, "fileRead": 3420, "ape": 3421, "//../": 3422, "2986": 3423, "etcfg": 3424, "paged": 3425, "pagebuilder": 3426, "jasp": 3427, "28123": 3428, "viv": 3429, "vity": 3430, "vies": 3431, "vieDB": 3432, "updat": 3433, "003": 3434, "0007": 3435, "giari": 3436, "utc": 3437, "uth": 3438, "utilities": 3439, "env": 3440, "enhanced": 3441, "urlPath": 3442, "tpro": 3443, "250": 3444, "25252": 3445, "2577": 3446, "httpd": 3447, "conomy": 3448, "names": 3449, "namespaces": 3450, "ajaxGetFile": 3451, "cket": 3452, "ckets": 3453, "ckeditor": 3454, "stract": 3455, "strap": 3456, "mla": 3457, "getpage": 3458, "getDe": 3459, "getFa": 3460, "getGfi": 3461, "getMap": 3462, "userfiles": 3463, "move": 3464, "month": 3465, "movies": 3466, "cgit": 3467, "ilder": 3468, "ilPlugin": 3469, "indexer": 3470, "://%": 3471, "ellect": 3472, "bash": 3473, "bauth": 3474, "posi": 3475, "position": 3476, "profiles": 3477, "progress": 3478, "protect": 3479, "its": 3480, "itch": 3481, "itter": 3482, "itis": 3483, "race": 3484, "raft": 3485, "ready": 3486, "reader": 3487, "readsheet": 3488, "unity": 3489, "unserial": 3490, "searchType": 3491, "searchstring": 3492, "searchTerm": 3493, "expre": 3494, "explorer": 3495, "forums": 3496, "forward": 3497, "thru": 3498, "asset": 3499, "assist": 3500, "assess": 3501, "assig": 3502, "../../../../../../../../../../../../../../../../../../../": 3503, "icMethodAccess": 3504, "webcall": 3505, "webservices": 3506, "combin": 3507, "compli": 3508, "complet": 3509, "company": 3510, "errors": 3511, "><!": 3512, "dererValue": 3513, "espress": 3514, "logfile": 3515, "logFile": 3516, "logfiles": 3517, "imgdownload": 3518, "imgProcess": 3519, "SECUR": 3520, "umns": 3521, "velo": 3522, "vehicle": 3523, "syn": 3524, "systic": 3525, "ular": 3526, "amty": 3527, "cluster": 3528, "types": 3529, "siZy": 3530, "CTCWeb": 3531, "fare": 3532, "favicon": 3533, "ards": 3534, "authori": 3535, "htmlawed": 3536, "dav": 3537, "day": 3538, "edin": 3539, "edms": 3540, "Nav": 3541, "backgro": 3542, "nodata": 3543, "todo": 3544, "tout": 3545, "total": 3546, "tiki": 3547, "tipg": 3548, "tickets": 3549, "vari": 3550, "ileApp": 3551, "jsps": 3552, "dition": 3553, "ditTra": 3554, "=/../../../../": 3555, "=/../../../": 3556, "dataId": 3557, "334": 3558, "hots": 3559, "posts": 3560, "ople": 3561, "svc": 3562, "svnweb": 3563, "servermanager": 3564, "serverConfig": 3565, "formW": 3566, "boaf": 3567, "bots": 3568, "izz": 3569, "eyJ": 3570, "eye": 3571, "Servers": 3572, "prem": 3573, "Real": 3574, "Redirect": 3575, "RestAPI": 3576, "mission": 3577, "nee": 3578, "nect": 3579, "tabbed": 3580, "mailster": 3581, "mailbrand": 3582, "Filename": 3583, "FileServlet": 3584, "FilePath": 3585, "FileTree": 3586, "imagemap": 3587, "imagedir": 3588, "))}}": 3589, "usrimg": 3590, "letter": 3591, "spip": 3592, "spreadsheet": 3593, "Inst": 3594, "Invoker": 3595, "Infusionsoft": 3596, "redirector": 3597, "classifi": 3598, "74064": 3599, "Security": 3600, "cast": 3601, "case": 3602, "captcha": 3603, "obj": 3604, "stores": 3605, "ults": 3606, "owa": 3607, "subscript": 3608, "subdomain": 3609, "subaction": 3610, "submask": 3611, "sourceaf": 3612, "/..;": 3613, "/..\\..\\..\\": 3614, "tax": 3615, "take": 3616, "sessionid": 3617, "temp": 3618, "question": 3619, "working": 3620, "gnl": 3621, "perfs": 3622, "perks": 3623, "saml": 3624, "safe": 3625, "2557": 3626, "csf": 3627, "address": 3628, "1010": 3629, "aytoo": 3630, "nslook": 3631, "Idx": 3632, "Users": 3633, "UserName": 3634, "callAnon": 3635, "pig": 3636, "pix": 3637, "REGI": 3638, "REFRES": 3639, "wsat": 3640, "wsgi": 3641, "resin": 3642, "fill": 3643, "helper": 3644, "isform": 3645, "textare": 3646, "sites": 3647, "sitecore": 3648, "backupmgt": 3649, "&_=": 3650, "head": 3651, "heat": 3652, "heart": 3653, "ifest": 3654, "\u0120/__": 3655, "dashboardId": 3656, "=\"%": 3657, "Proxy": 3658, "ProvCode": 3659, "istory": 3660, "checkout": 3661, "218": 3662, "21417": 3663, "212986": 3664, "Address": 3665, "ByPath": 3666, "goany": 3667, "jection": 3668, "generate": 3669, "generic": 3670, "community": 3671, "LoginPage": 3672, "ONE": 3673, "State": 3674, "away": 3675, "mysql": 3676, "osm": 3677, "collect": 3678, "columns": 3679, "customer": 3680, "facebook": 3681, "hostSign": 3682, "16769": 3683, "Results": 3684, "bia": 3685, "bix": 3686, "fee": 3687, "overview": 3688, "pricing": 3689, "whizz": 3690, "50574": 3691, "=')%": 3692, "=\"></": 3693, "SSAGE": 3694, "SSWOR": 3695, "tmpl": 3696, "reportresource": 3697, "}}'%": 3698, "}}')": 3699, "}}'};": 3700, "showcase": 3701, "opencms": 3702, "packages": 3703, "WebServlet": 3704, "dyn": 3705, "foodba": 3706, "publish": 3707, "wdD": 3708, "wdseo": 3709, "wdGgg": 3710, "wechat": 3711, "weight": 3712, "weeper": 3713, "webauth": 3714, "members": 3715, "memberhero": 3716, "restler": 3717, "activehelper": 3718, "connection": 3719, "nodeFilter": 3720, "nodeFilteringType": 3721, "timeout": 3722, "ARQB": 3723, "ARHJ": 3724, "Connect": 3725, "MSAt": 3726, "Sync": 3727, "profileIdx": 3728, "xxxxxxx": 3729, "Administrator": 3730, "AGM": 3731, "GetImage": 3732, "GetPh": 3733, "jobFilter": 3734, "jobFilteringType": 3735, "suppli": 3736, "supsystic": 3737, "updates": 3738, "ServerSettings": 3739, "accesskey": 3740, "built": 3741, "graphapi": 3742, "graphql": 3743, "registry": 3744, "registrar": 3745, "Mail": 3746, "Maconomy": 3747, "PHONE": 3748, "WHEN": 3749, "skin": 3750, "shortview": 3751, "popular": 3752, "LogService": 3753, "created": 3754, "()}": 3755, "())%": 3756, "()),": 3757, "/../../../../../../../../../": 3758, "/../../../../../../../../../../../../": 3759, "/../../../../../../../../../../../../../../../../": 3760, "/../../../../../../../../../../../../../../../../../../../": 3761, "3045": 3762, "345": 3763, "ADo": 3764, "APPL": 3765, "Execu": 3766, "Intellect": 3767, "ibit": 3768, "snmp": 3769, "switch": 3770, "urific": 3771, "rixia": 3772, "magpie": 3773, "currenc": 3774, "Configuration": 3775, "=${": 3776, "Form": 3777, "MEC": 3778, "MENT": 3779, "MESSAGE": 3780, "Node": 3781, "width": 3782, "manger": 3783, "manifest": 3784, "payment": 3785, "property": 3786, "Command": 3787, "Complet": 3788, "feedback": 3789, "682": 3790, "Diag": 3791, "Manage": 3792, "anti": 3793, "jxpbW": 3794, "simpleblog": 3795, "ureproxy": 3796, "remoterep": 3797, "orsFile": 3798, "livehelp": 3799, "syslog": 3800, "authentication": 3801, "operator": 3802, "keywords": 3803, "\")}}?": 3804, "44122": 3805, "ABLE": 3806, "ABAB": 3807, "DESC": 3808, "itemid": 3809, "ketplace": 3810, "smtp": 3811, "contactId": 3812, "mods": 3813, "modvalidate": 3814, "ables": 3815, "ReaderNo": 3816, "linkedin": 3817, "registered": 3818, "192": 3819, "Builder": 3820, "Mode": 3821, "Module": 3822, "MovieDB": 3823, "Strategy": 3824, "Upgrade": 3825, "YWRta": 3826, "drag": 3827, "detail": 3828, "trace": 3829, "traffi": 3830, "wicket": 3831, "parsi": 3832, "geojson": 3833, "seomatic": 3834, "async": 3835, "symposi": 3836, "Reporting": 3837, "ReportViewer": 3838, "}}/_/%": 3839, "ProcessWait": 3840, "ProcessBuilder": 3841, "MethodExecu": 3842, "nagiosql": 3843, "snapshots": 3844, "={%": 3845, "AjxMsg": 3846, "AjxKeys": 3847, "ICJj": 3848, "Import": 3849, "PANY": 3850, "PASSWOR": 3851, "PortType": 3852, "badge": 3853, "badging": 3854, "badbots": 3855, "elements": 3856, "knowage": 3857, "pmb": 3858, "pmpro": 3859, "vsan": 3860, "onlinePreview": 3861, "photoxh": 3862, "marketplace": 3863, "passing": 3864, "plagiari": 3865, "}};{": 3866, "rangeUn": 3867, "failure": 3868, "mimeonly": 3869, "Autodiscover": 3870, "building": 3871, "mobileapp": 3872, "\",\"": 3873, "10000000": 3874, "==?": 3875, "Audio": 3876, "AuditTra": 3877, "AssetMa": 3878, "Capability": 3879, "FFFF": 3880, "Helper": 3881, "JjPT": 3882, "OCBnc": 3883, "TPAGE": 3884, "TheMovieDB": 3885, "bootstrap": 3886, "cgc": 3887, "cambia": 3888, "high": 3889, "pjAction": 3890, "woocs": 3891, "woocommerce": 3892, "\u0120/..\\..\\..\\..\\..\\..\\..\\..\\..": 3893, "regions": 3894, "pattern": 3895, "minimal": 3896, "description": 3897, "secrets": 3898, "28126": 3899, "oooooooo": 3900, "causeFilter": 3901, "causeFilteringType": 3902, "AAAAAA": 3903, "toolbar": 3904, "tooltipg": 3905, "Status": 3906, "StaticMethodAccess": 3907, "diagnostic": 3908, "CSCOT": 3909, "','-": 3910, "DownloadPath": 3911, "launcherFilter": 3912, "launcherFilteringType": 3913, "3950": 3914, "56212986": 3915, "AIL": 3916, "AVgB": 3917, "CRg": 3918, "COMPLETE": 3919, "COMPANY": 3920, "EMAIL": 3921, "IsICJj": 3922, "NetBib": 3923, "Unknown": 3924, "ZmMsg": 3925, "ZmKeys": 3926, "[]{'": 3927, "avail": 3928, "btn": 3929, "cycle": 3930, "certs": 3931, "activity": 3932, "chron": 3933, "dismi": 3934, "getCorsFile": 3935, "topic": 3936, "=../../../../../../../../../../../../../../../": 3937, "queues": 3938, "queuelog": 3939, "personal": 3940, "pictures": 3941, "pictureproxy": 3942, "ProviderName": 3943, "aaaaaaaaaaaa": 3944, "draftID": 3945, "MethodAccessor": 3946, "IiwgIi": 3947, "IiwgIm": 3948, "TemplateMsg": 3949, "WaitDuration": 3950, "!--&": 3951, ")-%": 3952, ")\"></": 3953, "+--+&": 3954, "5450": 3955, "=..&": 3956, "CASE": 3957, "Catalog": 3958, "CMSPages": 3959, "Engine": 3960, "SQL": 3961, "crypto": 3962, "dCJd": 3963, "dkIiwgIm": 3964, "fancy": 3965, "guard": 3966, "human": 3967, "issue": 3968, "ipecs": 3969, "jkstatus": 3970, "jqueryFileTree": 3971, "mxperson": 3972, "netsweeper": 3973, "openam": 3974, "official": 3975, "pPj": 3976, "rwservlet": 3977, "sqli": 3978, "smart": 3979, "ttf": 3980, "twitter": 3981, "integr": 3982, "invite": 3983, "docDownloadPath": 3984, "allowStaticMethodAccess": 3985, "stopbadbots": 3986, "pagination": 3987, "leads": 3988, "208682": 3989, "decorator": 3990, "designer": 3991, "denyMethodExecu": 3992, "}}\")}}.": 3993, "servProvCode": 3994, "royal": 3995, "giveaway": 3996, "09121417": 3997, "prettyurls": 3998, "Registr": 3999, "RemoteSearch": 4000, "newsletter": 4001, "finalurl": 4002, "subscriber": 4003, "/....//..../": 4004, "featurific": 4005, "memberships": 4006, "Character": 4007, "PHNjcml": 4008, "destination": 4009, "trackr": 4010, "Application": 4011, "campaignId": 4012, "monitor": 4013, "notifications": 4014, "QueryComponentRen": 4015, "AdapterHTTP": 4016, "DOMAINID": 4017, "PrinterList": 4018, "constructor": 4019, "'})).": 4020, "52300": 4021, "AHY": 4022, "AawB": 4023, "BCC": 4024, "BLEFT": 4025, "BTOGGL": 4026, "BBOTT": 4027, "Browse": 4028, "Crumb": 4029, "Custom": 4030, "Denied": 4031, "Debug": 4032, "Dashboard": 4033, "Dialog": 4034, "Details": 4035, "ELSE": 4036, "Found": 4037, "Fimgur": 4038, "FlexibleAssets": 4039, "Hooks": 4040, "KeepAlive": 4041, "LOAD": 4042, "MobileApp": 4043, "MicroStrategy": 4044, "Policy": 4045, "PATCH": 4046, "PARAM": 4047, "POBatch": 4048, "ROOT": 4049, "Save": 4050, "SAPIrExt": 4051, "Timeout": 4052, "THEN": 4053, "Version": 4054, "Wealth": 4055, "Weeks": 4056, "ZdMsg": 4057, "ZGVwdGgg": 4058, "ahrixia": 4059, "apache": 4060, "bulk": 4061, "bangresto": 4062, "cstecgi": 4063, "cfide": 4064, "crowd": 4065, "csrf": 4066, "cfom": 4067, "cdaily": 4068, "cpanelwebcall": 4069, "friend": 4070, "fallback": 4071, "gwyns": 4072, "gadget": 4073, "guppy": 4074, "guest": 4075, "global": 4076, "handle": 4077, "hmapsprem": 4078, "ibeCRg": 4079, "kubernet": 4080, "long": 4081, "mstrWeb": 4082, "multi": 4083, "mmursp": 4084, "pentaho": 4085, "pprof": 4086, "qcubed": 4087, "rating": 4088, "rsvp": 4089, "rdParty": 4090, "sampler": 4091, "tiny": 4092, "vxcf": 4093, "welcome": 4094, "yousaytoo": 4095, "zabbix": 4096, "zaXplID": 4097, "\u00e9\u012e\u00a6": 4098, "information": 4099, "onobw": 4100, "metrics": 4101, "phpfastcache": 4102, "phpmailer": 4103, "phpmyadmin": 4104, "street": 4105, "stageshow": 4106, "staff": 4107, "streaming": 4108, "revslider": 4109, "regexCheck": 4110, "passth": 4111, "wpjobboard": 4112, "wpcargo": 4113, "alertLightbox": 4114, "203211": 4115, "maintenance": 4116, "}}:${%": 4117, "telemetry": 4118, "urationsGeneral": 4119, "jasper": 4120, "ajaxGetFileByPath": 4121, "getFavicon": 4122, "getGfiUpgrade": 4123, "getMapImg": 4124, "moveitis": 4125, "unserialize": 4126, "expression": 4127, "thruk": 4128, "assistant": 4129, "assessment": 4130, "assignee": 4131, "compliance": 4132, "espresso": 4133, "SECURITY": 4134, "siZyIsICJj": 4135, "CTCWebService": 4136, "authorize": 4137, "background": 4138, "hotspot": 4139, "svnwebclient": 4140, "serverConfigurationsGeneral": 4141, "boafrm": 4142, "mailbrandsettings": 4143, "InvokerServlet": 4144, "classified": 4145, "sourceafrica": 4146, "perfsonar": 4147, "nslookup": 4148, "REGISTER": 4149, "REFRESH": 4150, "textarea": 4151, "goanywhere": 4152, "foodbakery": 4153, "MSAtZGVwdGgg": 4154, "GetPhpInfo": 4155, "APPLY": 4156, "currency": 4157, "jxpbWcgc": 4158, "remotereporter": 4159, "4412200": 4160, "YWRtaW": 4161, "trafficanalyzer": 4162, "symposium": 4163, "PASSWORD": 4164, "photoxhibit": 4165, "plagiarism": 4166, "rangeUnits": 4167, "AuditTrailPlugin": 4168, "AssetMaker": 4169, "OCBncmF": 4170, "highlight": 4171, "tooltipglossary": 4172, "5621298674064": 4173, "NetBiblio": 4174, "picturesPreview": 4175, "dCJdXQ": 4176, "denyMethodExecution": 4177, "091214175450": 4178, "PHNjcmlwdD": 4179, "QueryComponentRendererValue": 4180, "BTOGGLABLE": 4181, "BBOTTOM": 4182, "MobileAppList": 4183, "SAPIrExtHelp": 4184, "WealthT": 4185, "kubernetes": 4186, "rdPartyServers": 4187, "zaXplIDF": 4188, "getGfiUpgradeFile": 4189, "moveitisapi": 4190, "siZyIsICJjb": 4191, "MSAtZGVwdGggOCBncmF": 4192}, "merges": ["i n", "\u0120 /", "e r", ". .", "E T", "G ET", "n t", ".. /", "d o", "o n", "m e", "../ ../", "p h", "r i", "ph p", "a d", "p t", "s c", "a l", "ri pt", "sc ript", "s t", "m a", "r e", "e t", "p a", "o r", "c o", "s s", "l e", "c t", "l o", "c u", "a t", "w p", "m in", "S T", "i on", "er t", "O ST", "P OST", "me nt", "g in", "ad min", "al ert", "g e", "2 2", "2 0", "ma in", "do cu", "docu ment", "d e", "do main", "e nt", "p l", "f i", "a r", ".. %", "} }", "../../ ../../", "s e", "{ {", "a ct", "co nt", "a n", "= %", "s h", "1 1", "s er", "pl u", "plu gin", "cont ent", "r o", "F script", "c e", "t e", "c h", "h t", "plugin s", "u r", "2 7", "ss w", "i d", "t er", "pa ssw", "n a", "l i", "fi le", "a p", "/ /", ") %", "C script", "E alert", "passw d", "2 9", "et c", "pa ge", "j a", "2 8", "v i", "u p", "lo ad", "0 0", "j s", "x t", "g i", "u t", "e n", "ur l", "d i", "t p", "2 5", "0 9", "at e", "/ ?", "2 3", "in ter", "lo gin", "ja x", "ht tp", "c on", "na me", "a jax", "c k", "st r", "m l", "g et", "u ser", "v er", "m o", "de x", "inter act", "act ion", "11 11", "ap i", "c gi", "i l", "i m", "in dex", "or t", ": //", "e l", "e w", "in g", "b a", "ar ch", "t xt", "e b", "t y", "p o", "p ro", "r an", "i t", "p e", "r a", "re ad", "/ {{", "do w", "u n", "se arch", "e x", "f or", "s r", "o o", "r or", "a ge", "t h", "25 2", "a ss", "u e", "../../../../ ../../../../", "i c", "w eb", "co m", "ran d", "read me", "sr c", "er ror", "p ort", "ion s", "> <", "a s", "d er", "e s", "lo g", "im g", "L E", "m s", "rand str", "s et", "al l", "L L", "a ut", "w in", "vi ew", "a b", "S E", "u m", "v e", "= &", "< /", "= {{", "s y", "u l", "/ %", "a m", "b in", "s o", "on error", "te st", "00 22", "u b", "c l", "f o", "ty pe", "s i", "fi g", "at a", "vi ce", "1111 1111", "i ma", "m d", "C T", "I D", "e m", "f a", "at ion", "up load", "n load", "ar d", "aut h", "N U", "ht ml", "NU LL", "I N", "d a", "e d", "interact sh", "LE CT", "SE LECT", ". %", "N a", "c f", "ba ck", "\\ ..", "n o", "t o", "dow nload", ") </", "d u", "t i", "Na me", ") ,", "v a", "et s", "}} .", "con fig", "i le", "js p", "di t", "js on", "= /", "d ata", "x ml", "( %", "3 3", "h o", "ss ion", "po st", "o p", "er y", "re ct", "or d", "an g", "g er", "s v", "ser ver", "ja va", "for m", "\" ><", "+ %", "a a", "b o", "i z", "le ct", "re di", "pa th", "ce ss", "http s", "e y", "l ang", "../../ ../", "S er", "p re", "ma na", "en d", "= ../../../../../../../../", "C o", "L o", "R e", "c li", "w w", "x x", "st em", "m i", "n e", "t ab", "in i", "ma il", "6 5", "F ile", "a c", "k i", "}} %", "li st", "o pt", "ba se", "dow s", "ima ge", ") )", "b u", "o ut", "q u", "t r", "u s", "u nt", "se lect", "file name", "= ../../../../", "n ew", "st er", "ap p", "sy stem", ") ;", ") >", "f in", "i p", "l et", "s p", "ur ce", "ass ets", "du le", "cli ent", "I n", "p le", "q ue", "on load", "st at", "co de", "sv g", "redi rect", "D alert", "c at", "k ey", "ser vice", "mo dule", "cl ass", "7 4", "S e", "c a", "e dit", "l er", "o b", "st o", "ct ion", "ch e", "ver s", ":// {{", "ul t", "c md", "o w", "t ing", "}} /", "user s", "\\.. \\..", "2 6", "C img", "n d", "r l", "s ub", "u i", "ar t", "so urce", "11111111 11111111", "- -", "/ ..", "c al", "t a", "w or", "or der", "}} ?", "se ssion", "te m", "as p", "win dows", "que st", "wor k", ") .", "6 4", "d ate", "e v", "g n", "n um", "p er", "s a", "v let", "ma t", "}} &", "25 5", "opt ions", "c s", "ad d", "set ting", "bo ard", "1 0", "= <", "a y", "n s", "n er", "u de", "at or", "li b", "ki e", "E B", "I d", "a st", "p on", "ro l", "mana ger", "tr ue", "U ser", "a sh", "c all", "l in", "p i", "mo de", "asp x", "A T", "J O", "R E", "i ve", "l s", "o t", "o kie", "in cl", "co okie", "qu ery", "setting s", "f un", "l u", "s pa", "w s", "y pe", "script s", "re s", "or y", "pl ate", "fi l", "li c", "ul l", "am ple", "fa ult", "vers ion", "JO IN", "incl ude", "a f", "b er", "h el", "i s", "m it", "t ion", "v en", "\u0120/ {{", "re source", "re quest", "co unt", "te xt", "el d", "si te", "IN F", "da sh", "back up", "), %", "& _", "6 3", "A A", "F il", "P age", "c re", "g ra", "h e", "i f", "n ull", "t it", "t oo", "v al", "\u0120/ _", "re gi", "cont rol", "ht m", "passw ord", "ex port", "upload s", "ww w", "dash board", "Fil ter", "( '", "= \"", "C svg", "P ro", "W EB", "f etc", "i o", "i st", "o ast", "r m", "in fo", ".. .%", "st art", "se cu", "an ima", "file s", "ra me", "ex e", "iz ard", "fin der", "sto m", "che ck", "fil ter", "anima tion", "/ ..%", "2 1", "A d", "B y", "O M", "T ype", "b y", "f ro", "g o", "j e", "n c", "s ort", "do r", "cu rl", "ge ner", "ate g", "com m", "Lo gin", "bu g", "tem plate", "ev ent", "ven dor", "+ (", "3 1", "7 8", "A c", "N D", "O N", "S t", "a w", "b e", "d f", "e xt", "g r", "g t", "g all", "i al", "m y", "n et", "o s", "p r", "u age", "ma nd", "pa n", "pa ck", "co l", "lo w", "cu stom", "20 1", "de bug", "page s", "el finder", "fa ce", "ho st", "ne xt", "image s", "pon ent", "tit le", "1 6", "A LL", "R es", "b i", "f e", "f t", "i me", "o ver", "p ri", "r p", "u se", "w h", "w ord", "w izard", "x y", "y le", "in t", "st yle", "co re", "de fault", "an ce", "00 00", "user name", "un ion", "oo k", "fo nt", "si gn", "lang uage", "mana ge", "module s", "gall ery", "( {{", "( ).", "1 5", "5 0", "7 3", "; /", "= '", "= \"><", "A M", "C F", "S S", "U T", "a in", "c ss", "c ateg", "f f", "f passwd", "s g", "t m", "re port", "re am", "}} '", "an d", "sh ow", "com mand", "op en", "java script", "Co nt", "stat us", "Se arch", "include s", "pack age", "categ ory", "2 4", "= -", "H E", "P UT", "R unt", "U R", "W eb", "a re", "d y", "f oo", "m ber", "o d", "p ut", "p ub", "w d", "w e", "in c", "me mber", "re st", "act ive", "ser vlet", "ap pl", "di a", "con ne", "str ing", "com ponent", "aut o", "ID E", "cf m", "no de", "ti f", "ti me", "aa aa", "=../../../../ ../../../", "1111111111111111 1111111111111111", "sa ve", "CF IDE", "Runt ime", "A R", "A ND", "C on", "L ist", "M S", "S y", "g ro", "k er", "v ar", "me th", "st all", "re f", "de mo", "pro file", "pro xy", "ex ample", "age nt", "th e", "set up", "Ser vice", "Ser vlet", "=../../../../../../../../ ../../", "xx xx", "service s", "class es", "Se ssion", "hel p", "too ls", "Ad min", "gener al", "meth od", "/ _", "/ .%", "1 7", "1 8", "3 2", "3 6", "6 0", "= ..%", "A G", "A ut", "C h", "D e", "G et", "M sg", "] =", "g ht", "j ob", "l d", "r un", "s u", "s up", "\u0120/ %", "er e", "me ss", "ad er", "ma ster", "ss ions", "lo ck", "lo cal", "at h", "fi eld", "up date", "con f", "log out", "Ser ver", "pre view", "ac cess", "bu il", "gra ph", "regi str", "comm on", "conne ct", "+ '", "6 1", "F passwd", "H T", "I T", "M a", "P H", "P ath", "S et", "U N", "W HE", "e st", "k en", "s k", "php un", "cu s", "de vice", "fi rm", "se ssions", "sh ort", "il s", "el l", "po p", "web mail", "so l", "fo cus", "back end", "du ct", "Lo g", "stat ic", "-- +", "AT E", "cre ate", "val ue", "control ler", "secu re", "exe c", "fro m", "je ct", "UR L", "gro up", "mess age", "phpun it", "( \"", "( )", ") }}", ", %", "/ ../", "/ ../../../../../../../../", "1 23", "1 33", "3 0", "3 4", "6 9", "> &", "A D", "A P", "A ction", "C S", "D ata", "E x", "F etc", "I nt", "O r", "P D", "S ET", "a v", "c ation", "d b", "e e", "i b", "i es", "p n", "p df", "s n", "s w", "t ar", "u d", "u ri", "in e", "in s", "ri d", "ri x", "ma g", "ma p", "ma ge", "re nt", "cu r", "ment s", "ar g", "}} -", "}} ),", "id er", "li te", "file Name", "// //", "con firm", "im port", "im ple", "pro duct", "ic s", "da g", "to ken", "end ar", "\\..\\.. \\..\\..", "cal endar", "call back", "mode l", "Ac cess", "pr int", "pri ce", "rp c", "pub lic", "active sessions", "tif act", "Con fig", "Session ID", ") +", ". /", ": %", "= $", "= </", "? _", "F i", "F or", "I ON", "I mage", "M E", "M L", "N o", "U rl", "U PD", "W in", "X SS", "a x", "b s", "c ial", "d alert", "g ate", "l t", "l ass", "o auth", "p ert", "t ation", "v c", "w id", "z e", "in stall", ".. ../", "on animation", "me dia", "ma n", "et a", "pa y", "at ions", "de st", "ent ic", "ar tifact", "../../../../ ../", "cont ain", "ro tation", "te ns", "ch an", "con cat", "pro pert", "ex tens", "for mat", "oo t", "port al", "ms g", "redi r", "Co l", "Co m", "tab le", "ac count", ")) )", "edit or", "-- %", "fun ction", "spa ce", "resource s", "fe ed", "component s", "the me", "WHE RE", "short code", "sol r", "tar get", "UPD ATE", "' +", "( $", "( )%", "6 8", "7 2", "7 7", "C O", "D i", "E R", "F R", "F S", "F interact", "M an", "P er", "T F", "V i", "] [", "a g", "a nt", "b log", "c lo", "c ar", "c ms", "d l", "d at", "e p", "f al", "i ra", "i gn", "j x", "j ira", "m g", "m t", "q l", "r t", "r y", "s imple", "t ri", "u re", "w c", "w g", "\u0120 {{", "ri ty", "ri es", "re mo", "pa ra", "or s", "at ta", "de sc", "te ms", "ur n", "li ve", "li mit", "js pa", "en code", "con so", "get P", "ic ro", "as k", "um b", "sy s", "ub e", "auth entic", "33 33", "op er", "pre ss", "client s", "In put", "key word", "ca che", "lin e", "St ream", "and ler", "appl y", "HT ML", "UN ION", "pop up", "Fi eld", "Win dows", "onanimation start", "FR OM", "fal se", "atta ch", "conso le", "Input Stream", "\" )", "' ,", "( ),%", ") &", ") //", "+ {{", ". \\..", ". /..", "0 7", "1 3", "4 4", "A B", "D E", "D x", "E P", "J ob", "M et", "O p", "S LE", "U t", "W ri", "\\ \\", "a ssw", "b ed", "b ook", "b lock", "e ch", "e mail", "f rame", "g N", "i str", "i tem", "k b", "k et", "n u", "o ri", "p g", "s m", "s na", "u te", "w get", "\u0120/ ?", ".. \\..", "do m", "ad e", "re ss", "at ar", "ge nt", "ent ries", "pl ay", "ar y", "se nd", "cont act", "cont ext", "ro ot", "ro gN", "ch er", "file manager", "vi s", "get Wri", "ver if", "mo d", "ing a", "ing Type", "pro cess", "it rix", "ex per", "ic inga", "web admin", "ab le", "um n", "so cial", "si ze", "bo x", "Re ader", "=../../../../ ../", "); %", "sub mit", "ev al", "mat t", "ash x", "lin k", "lic y", "request s", "regi ster", "Filter ingType", "template s", "face s", "use over", "wh ere", "ance d", "133 7", "wid get", "..../ ..../", "propert ies", "Vi ew", "Op en", "SLE EP", "assw ord", "istr ator", "getWri ter", "verif y", "exper i", "$ {", "1 2", "1 9", "3 7", "4 0", "; &", "A gent", "B u", "C H", "C NULL", "F onload", "M o", "O pt", "P assword", "S tr", "U p", "V al", "Y W", "a ger", "b W", "b um", "b ws", "c script", "c mi", "d ra", "d new", "d eta", "f script", "f low", "g le", "g oo", "h ash", "i r", "i an", "i con", "i tems", "k e", "l ab", "m pt", "m icro", "n y", "n on", "o g", "o v", "o st", "p s", "p sh", "p ing", "r u", "r ror", "s ample", "t c", "t s", "t ra", "t urn", "v ider", "w i", "er r", "on mo", "al bum", "st ream", "ma x", "re e", "re al", "re po", "re turn", "pa r", "ss l", "ment al", "gin e", "ge o", "20 0", "se o", "sh are", "sh ell", "plu s", "ch at", "na gi", "li ty", "url s", "di r", "di sc", "di rect", "get Runtime", "user agent", "mo b", "pro mpt", "for ms", "for um", "ic ation", "as y", "win dow", "SE R", "sy m", "test s", "cf ajax", "no w", "xml rpc", "ho d", "iz e", "Re port", "qu i", "vers ions", "}}/ _", "pon se", "(' {{", "Pro cess", "secu rity", "event s", "col or", "wizard s", "tm ui", "11111111111111111111111111111111 11111111111111111111111111111111", "/.% %", "Aut h", "PH P", "Or der", "av atar", "cur rent", "Man ager", "authentic ate", ".\\.. .\\..", "./.. ./..", "Met hod", "Ut il", "ech o", "sna psh", "..\\.. ..\\..", "experi mental", "onmo useover", "nagi os", "snapsh ot", "' ='", "( /", "* %", "+ -", "1 27", "5 0000", "7 9", "= (", "= {", "? &", "A F", "A p", "A rotation", "A jx", "B IT", "C re", "D ow", "D animation", "E MS", "E rror", "F I", "H andler", "I C", "I i", "I m", "L ET", "M ar", "O R", "P A", "P W", "P ort", "P op", "Q B", "S ate", "S ub", "\\ %", "a X", "a ml", "b O", "b m", "b ad", "b itrix", "c m", "c cess", "d P", "d in", "e et", "e le", "e ar", "f s", "f us", "g B", "g no", "h ms", "h ook", "i fi", "j o", "k ins", "k now", "l a", "l p", "l ar", "l ate", "l ay", "l lite", "n al", "n der", "o to", "o ft", "o ff", "p m", "q q", "t ask", "v o", "v s", "v anced", "w a", "w ay", "x i", "\u0120 src", "\u0120 onerror", "do ra", "on line", "me ta", "me nu", "ph oto", "php info", "ad vanced", "al y", "st a", "st din", "ma r", "re set", "re view", "re sp", "pa ss", "or g", "ct or", "ct ions", "at lass", "admin istrator", "ge x", "de li", "pl a", "}} ;", "}} /{{", "}} \"><", "se c", "an aly", "sh eet", "ro ute", "ur ation", "id s", "li o", "li sh", "page name", "get InputStream", "il y", "index File", ":// /", "el ine", "po licy", "ran ge", "search Field", "view s", "sy nc", "fa il", "cf c", "cf g", "dit or", "ho me", "rect ion", "java x", "iz er", "=../../../../../../../../ ../", "=../../../../../../../../ ../../../", "cli ck", "mi me", "ip eline", "sto re", "order ID", "work space", "hel lo", "is Pop", "if rame", "fro nt", "go form", "sort By", "sort Di", "gr ade", "pan el", "pan dora", "low er", "Res ponse", "Sy s", "Aut o", "De fault", "job orderID", "su ccess", "buil d", "registr ations", "Ma ster", "Set up", "AP I", "pn g", "mag mi", "contain er", "extens ions", "Per Page", "clo se", "remo te", "getP ipeline", "Job Order", "entries PerPage", "Open Mar", "Opt ion", "cmi s", "goo gle", "disc over", "mob ile", "BIT EMS", "Cre ate", "FI LE", "LET E", "Sate llite", "fus ions", "resp on", "atlass ian", "isPop up", "sortDi rection", "getPipeline JobOrder", "OpenMar ket", "\" ,", "\" >", ") }}&", "+ /", "/ ../../../../", "/ ../../../", "1 4", "1 0000", "3 8", "4 25", "6 6", "7 0", "= ;", "= =", "? {{", "A E", "A S", "A u", "A ss", "B S", "B alert", "C a", "F F", "G I", "G V", "H el", "I FS", "J j", "K ey", "M ET", "N AM", "O C", "Q u", "S c", "T O", "T P", "T he", "U I", "V E", "W P", "X J", "X ce", "Z XJ", "a o", "a co", "b ra", "b oot", "c g", "c ent", "c am", "c sv", "d w", "d Int", "e alert", "f l", "f w", "f fi", "g z", "g rid", "h a", "h i", "h ex", "h ax", "i ght", "k ube", "l y", "m p", "m on", "n f", "n x", "o us", "o urce", "p j", "p y", "p or", "p lo", "s b", "s f", "s ap", "t d", "t id", "v m", "v ert", "w B", "w l", "w oo", "w ho", "x work", "y ear", "z s", "} &", "\u0120 ?", "\u0120 http", "\u0120/ /", "\u0120/ ..", "\u0120/ ..%", "on e", "on focus", "ad m", "al og", "st ic", "re a", "re d", "re g", "re pe", "re nder", "pa t", "le s", "lo cation", "min im", "de script", "de fin", "de code", "fi re", "}} }}", "}} +-", "se cre", "te s", "ter s", "li ght", "// %", "28 1", "vi a", "vi su", "00 0", "00 1", "js mo", "gi t", "en gine", "con vert", "ck e", "ver y", "arch ive", "po int", "ran dom", "un d", "un cher", "un defin", "oo oo", "th umb", "../../../../../../../../ ../../../", "log s", "view er", "am p", "cf client", "no t", "download s", "dit ty", "Co de", "=../../../../ ../../", "app s", "); //", "In dex", "stat s", "ca use", "ow s", "/.. ;/", "order by", "date Create", "fun c", "fun ctions", "lu a", "spa m", "res ult", "site map", "AA AA", "Page s", "too l", "val id", "By Name", "St at", "bi lity", "sign in", "sign up", "report s", "open id", "Cont ent", "appl ication", "dia gno", "auto focus", "Sy stem", "example s", "sup port", "buil der", "ject s", "CS CO", "sw ag", "For mat", "gate way", "chan ge", "theme s", "dl l", "mg mt", "para ms", "oper ation", "attach ment", "', '", "frame work", "CH AR", "Str ing", "Up load", "deta ils", "non ce", "ov L", "real ms", "nagios xi", "Dow nload", "la uncher", "vo ker", "fusions oft", "respon se", "425 23", "MET A", "NAM E", "repe at", "visu al", "jsmo l", "undefin ed", "dateCreate dInt", "swag ger", "\" %", "\" &", "& \"><", "( /{{", "3 9", "5 5", "5 6", "7 5", "7 6", "9 5", "9 6", ": /", "= +", "= ../../../", "> %", "A C", "A I", "A J", "A V", "A X", "A CS", "B O", "B X", "C R", "C li", "C md", "C AT", "C OM", "C ON", "C VE", "D new", "D EB", "D ovL", "E M", "G F", "G en", "H R", "H t", "H ash", "I s", "N T", "N Y", "N y", "N et", "O A", "O i", "P C", "P t", "P lu", "P review", "R oot", "T o", "T em", "U G", "U n", "W a", "Z m", "[ ]", "a pt", "a va", "a HR", "b t", "b on", "b ar", "b wg", "b lio", "c c", "c d", "c i", "c n", "c y", "c le", "c ert", "c id", "c img", "c ard", "c DovL", "d x", "d up", "d dy", "e ss", "e asy", "g h", "g ot", "g lish", "h er", "i x", "i pl", "j pg", "k s", "k y", "m gr", "n sp", "o k", "o m", "p b", "r ary", "s on", "t on", "t ml", "t ran", "u ator", "v pn", "w ri", "w bm", "x l", "x m", "x ss", "y es", "z a", "z im", "z td", "\u0120 -", "in Password", "er al", "er ed", "er face", "do ctor", "st ep", "ma c", "ma ke", "re en", "re qui", "pa c", "pa rame", "pa ign", "ss o", "lo call", "cu te", "at form", "gin g", "ge nx", "22 3", "20 21", "de v", "de let", "pl i", "pl et", "pl ic", "pl atform", "se s", "act i", "act uator", "sh ar", "sh op", "sh ip", "sh tml", "ro w", "ch r", "ch ar", "ur ve", "id p", "na vi", "// {{", "vi de", "vi con", "up grade", "js f", "ut il", "en ce", "en glish", "di o", "di s", "di v", "di spa", "ml flow", "get C", "mo o", "action s", "it ion", "ra b", "ra w", "search ed", "search Col", "search Option", "for Name", "th ir", "ic le", "web site", "es p", "=& _", "am i", "am ily", "so ft", "fo l", "em bed", "upload er", "no ti", "no tif", "to p", "du plic", "Name Re", "data base", "post ids", "server s", "lect or", "end point", "=../../../../../../../../ ../../../../", "=../../../../../../../../ ../../../../../", "Lo ad", "Re quest", "xx x", "mi gr", "opt ion", ")) .", ")) +%", "bu ddy", "qu iz", ")> /..", "fin d", "ip p", "In fo", "In stall", "que ue", "ler ate", "cmd b", "ting s", "num ber", "per son", "add r", "rol ler", "User name", "pi ct", "backup s", "gra m", "he ader", "Pro vider", "exe cute", "Ac count", "aw redir", "aw stats", "net work", "col umn", "host name", "Res et", "bi blio", "wh at", "word press", "wizard user", "wizard Hash", "tm p", "}}' ),", "Cont ext", "Cont roller", "dy zs", "member Access", "auto discover", "aaaa aaaa", "List Manager", "xxxx xxxx", "AG E", "ld ap", "run s", "run ner", "field s", "connect or", "Set tings", "ell a", "(\" {{", "/../ /../", "Ex port", "Int erface", "ib le", "sn ipl", "sn ipp", "ins ert", "//// ////", "product s", "pay load", "contain s", "extens ion", "Col lector", "account s", "77 74", "dat as", "ry pt", "para m", "DE LETE", "View er", "Val id", "dra ft", "icon s", "micro soft", "ost name", "wi ki", "par ty", "forum runner", "SER V", "authenticate wizarduser", "Method Access", "Ii wg", "Sub mit", "dP Pt", "ele ment", "hook s", "ifi cation", "late st", "deli very", "pla ce", "FILE S", "Key s", "Qu ery", "Sc ript", "Xce lerate", "aco a", "who ami", "AJ AX", "Cli ent", "CON CAT", "DEB UG", "Gen eral", "Ht tp", "Plu gin", "Root URL", "Tem plate", "Wa it", "ky lin", "wri te", "zim bra", "requi re", "parame ters", "locall b", "genx or", "delet e", "urve y", "navi gate", "dispa t", "searchCol umn", "thir d", "NameRe gex", "migr ate", "biblio pac", "snipl ets", "! --", "\" :", "\" ;", "$ (", "& &", "' )%", "' );//", "( @", ") -", ") }}.", ") \"><", ") \">", "* *%", "+ --+", "+ =+", "/ *", "/ .", "/ <", "/ ../../", "/ )</", "/ \"><", "/ ;/", "/ ../../../../../", "0 1", "1 00", "3 5", "4 5", "4 00", "5 4", "6 2", "7 27", "7 69", "7 07", "8 0", "8 6", "9 8", "; %", "; ?", "< %", "< >", "= |", "= ..", "= ../", "= ../../", "= //", "> ?", "A Z", "A b", "A m", "A t", "A jax", "A IN", "A da", "A ny", "C A", "C E", "C at", "C oo", "C win", "C he", "C MS", "C Windows", "D B", "D OM", "D OC", "E W", "E n", "E y", "E z", "E ND", "F s", "F in", "G L", "G M", "G rab", "H ostname", "L P", "M ain", "O B", "O n", "P L", "P R", "P g", "P r", "P ost", "R PC", "S Q", "S o", "S kins", "T h", "T r", "T ra", "T IT", "T est", "T ree", "V ud", "W p", "W izard", "X X", "Z y", "[ %", "_ _", "` %", "a i", "a u", "a ri", "a sc", "a alert", "a ho", "b b", "b c", "b g", "b le", "b an", "b ut", "b rand", "b GV", "c r", "c win", "c windows", "c ors", "c rypt", "d C", "d k", "d s", "d ms", "d um", "d Ch", "e at", "e cg", "f g", "f u", "f an", "f lu", "f amily", "g g", "g l", "g u", "g ger", "g ui", "h u", "h ass", "h andler", "h dw", "h bGV", "i g", "i ss", "i pe", "j k", "j query", "l g", "l n", "l ider", "m x", "m ur", "m id", "n el", "n ets", "o c", "o x", "o ur", "o pe", "o my", "o ffi", "p P", "p p", "p u", "p w", "p me", "p ma", "p id", "p server", "q s", "r f", "r w", "r ing", "r vm", "s q", "s ph", "s ma", "s wp", "s id", "s ing", "s ms", "s ql", "s urvey", "t t", "t w", "t al", "t ty", "t ics", "t ube", "t ree", "u sc", "u al", "u ch", "u id", "u sr", "u res", "v r", "v el", "w m", "w t", "w are", "x h", "x html", "x ible", "y sa", "y dCh", "z c", "z er", "} ;", "} );", "in k", "in te", "in vi", "in it", "in sta", "in voker", "in fusionsoft", "\u0120/ +", "\u0120/ .", "\u0120/ /{{", "\u0120/ .%", "er m", "er s", "er er", "er ce", "er vis", "nt o", "nt is", "do c", "on y", "on ly", "ph ony", "ad apt", "pt er", "sc ri", "al low", "st op", "st ude", "st ics", "st amp", "ma ven", "ma sk", "ma ntis", "re sh", "re we", "pa gin", "pa rent", "pa bility", "or ing", "or ator", "or ByName", "co s", "co ver", "ss h", "le ad", "le vel", "le xible", "lo b", "lo ki", "lo ok", "at ch", "at mail", "at om", "admin im", "alert s", "alert list", "20 8", "20 23", "main t", "de c", "de l", "de sign", "de ny", "ent ry", "pl an", "pl ain", "fi x", "}} )", "}} \")", "se ction", "an i", "an y", "an sph", "ser v", "ro y", "ce e", "ce pt", "te am", "ch a", "27 1", "ter nal", "na m", "na cos", "li ti", "file path", "// /", "vi ous", "gi ve", "ut ils", "en kins", "09 1", "ate ver", "/? =&", "inter face", "inter nal", "con str", "ajax Handler", "ck er", "get id", "ver ification", "mo te", "mo set", "api si", "il d", "im por", "el Fin", "ing s", "txt Search", "po c", "po m", "po t", "pro c", "pro d", "pro ject", "pro vider", "it al", "ex ternal", "for got", "web app", "web tools", "web shell", "web proc", ">< /", "ab out", "sy spa", "cl ansph", "ima te", "fa ile", "auth or", "IN G", "cf f", "\\.. \\", "download er", "ti po", "=/ ../../", "xml pserver", "ho sp", "op s", "aa a", "bo dy", "iz ation", "pre tty", "pre fix", "pre vious", "=../../../../../../../../ ../../../../../../../../", "Lo cal", "Re ad", "Re gi", "Re mote", "mi ter", "mi fs", "tab ella", "mail box", "65 63", "65 727", "File s", "ac s", ")) &", "out put", "select or", "new s", "); </", ")> ?", "fin al", "sp ring", "cat ions", "cat alog", "74 2", "74 22", "ca nto", "edit client", "ob cs", "ob jects", "ult imate", "}}/ )%", "\\..\\.. \\", "sub scri", "/.. ../", "ta g", "64 69", "mat ch", "mat ic", "ns root", "lib rary", "User Valid", "lin es", "pi e", "pi cker", "RE S", "lu ence", "lu cee", "backup buddy", "63 6", "tit an", "Pro ject", "WEB AC", "check list", "by net", "je ecg", "ateg y", "comm erce", "Login User", "aw ed", "be gin", "df sms", "pan y", "pan da", "Res ource", "fe at", "wh atever", "font s", "manage ment", "73 636", "=' ;", "ff ff", "ff ered", "open sym", "Cont act", "Web Interface", "wd dx", "member ship", "aaaa a", "ker bynet", "ref erer", "ref resh", "demo s", "Servlet Response", "/_ _", "Ch ar", "De vice", "Get File", "ld GM", "sup ervis", "local e", "update xml", "conf luence", "registr ation", "HT TP", "IT Y", "PH N", "UN T", "sk ysa", "Log on", "value s", "message s", "Or g", "av el", "rid xm", "map s", "arg s", "dag s", "\\..\\..\\..\\.. \\..\\..\\..\\..", "print ln", "ax is", "vc ac", "vc GF", "install er", "dest in", "chan nel", "Com ponent", "space s", "CO UNT", "ant ani", "clo ud", "car bon", "tri gger", "3333 3333", "attach ments", "InputStream Reader", "book ing", "block s", "ori gin", "dom pdf", "play er", "play list", "widget s", "..../..../ ..../..../", "40 4", "Bu ffered", "Val ue", "bW Vud", "lab el", "ru id", "tra ck", "repo s", "return Format", "geo server", "qui ck", "1111111111111111111111111111111111111111111111111111111111111111 1111111111111111111111111111111111111111111111111111111111111111", ".\\...\\.. .\\...\\..", "./.../.. ./.../..", "..\\....\\.. ..\\....\\..", "={ \"", "Ap p", "Ap pl", "PW Reset", "Port al", "aX B", "jo loki", "know n", "lar avel", "lay out", "off set", "qq q", "task s", "mar moset", "analy tics", "analy zer", "route s", "mime Type", "front end", "Sys LoginUser", "cmis atom", "Ass ets", "Hel p", "The me", "cent er", "cam paign", "fl ash", "ha W", "mon it", "plo y", "sf wd", "tid io", "minim izer", "descript orByName", "fire work", "secre t", "valid ate", "diagno stics", "CSCO E", "repeat er", "visual izer", "76 65727", "ACS Server", "Ny aXB", "her o", "ton s", "tran s", "shar ing", "vide o", "moo ve", "fol der", "noti fi", "notif y", "duplic ator", "Request s", "header s", "snipp ets", "datas et", "SERV ER", "element or", "Query Component", "Http ServletResponse", "dispat cher", "third party", "\": \"", "707 26", "Ada pter", "Coo kie", "Che ck", "DOM AIN", "Fs ZXJ", "Pr inter", "So lar", "Tr ue", "TIT LE", "Wp Org", "but tons", "cr ud", "dum p", "fu el", "flu sh", "gl pi", "hass io", "hbGV ydCh", "our php", "sing le", "insta gram", "adapt ive", "stude nt", "adminim ize", "liti es", "constr u", "ajaxHandler s", "apisi x", "elFin der", "syspa rm", "clansph ere", "faile d", "hosp ital", "6563 742", "6469 73636", "UserValid ation", "WEBAC COUNT", "opensym phony", "ldGM vcGF", "supervis or", "Buffered Reader", "bWVud C", "PWReset UserValidation", "joloki a", "7665727 95", "hbGVydCh kb", "ldGMvcGF zc", "\" +", "\" /", "\" }&", "$ %", "& %", "& =&", "' %", "' }", "' }}", "' ><", "' ).", "( ),", ") \\", ") --+", "* '", "* {{", "+ [", "+ __", ", (", ", +", ". {{", "/ -", "/ ;", "/ ./", "0 4", "0 5", "0 64", "1 22", "1 31", "3 28", "4 1", "4 7", "4 8", "4 17", "4 38", "5 2", "5 00", "5 23", "5 74", "6 16", "7 1", "9 1", "9 9", "9 17", ": :", ": ${", "; ;", "< @", "= *", "= @", "= \\", "= _", "= `", "= ...%", "> /", "> /?", "? %", "? /%", "A H", "A L", "A Q", "A U", "A r", "A aw", "A live", "A non", "A sync", "B C", "B R", "B T", "B LE", "B ID", "B nc", "B lock", "B ib", "B TO", "B BO", "B row", "C r", "C u", "C ard", "C title", "C ALL", "C AM", "C UR", "C Web", "C lass", "C ute", "C GI", "C CHAR", "C div", "D I", "D Y", "D n", "D en", "D eb", "D ash", "D ial", "D eta", "D uration", "E K", "E L", "E xt", "E mail", "E sample", "E ditor", "E NT", "F T", "F a", "F h", "F o", "F img", "F www", "F rame", "F memberAccess", "F Xcelerate", "F eat", "F lexible", "F RES", "G R", "G fi", "G ator", "G GL", "G gg", "H J", "H Q", "H OST", "H ook", "I S", "I V", "I p", "I mg", "I tems", "J d", "J enkins", "K T", "K ee", "L D", "L O", "L y", "L ay", "L ast", "L ight", "M I", "M T", "M g", "M ap", "M em", "M ob", "M icro", "N O", "N ew", "N ot", "N EW", "O K", "O O", "O k", "O ne", "P E", "P T", "P h", "P o", "P ri", "P ar", "P ub", "P AT", "P AR", "P LETE", "P OB", "R C", "R o", "R en", "R ta", "R ows", "R OO", "S C", "S O", "S a", "S i", "S ho", "S AM", "S imple", "S ign", "S aml", "S API", "T T", "T ab", "T ime", "T HE", "T ask", "T erm", "U S", "U id", "U ID", "U SER", "V ers", "W S", "W e", "W ee", "W FS", "W OR", "X Q", "X ml", "Y PE", "Z G", "Z T", "Z d", "Z Msg", "Z GV", "[ ]=", "] %", "] =%", "] ,%", "_ {{", "` ;", "` \\%", "a h", "a z", "a ma", "a pa", "a se", "a id", "a ms", "a ws", "b N", "b ro", "b el", "b ul", "b ang", "b CSCOE", "c ad", "c st", "c et", "c fi", "c ro", "c ml", "c interact", "c ing", "c sr", "c as", "c ab", "c fo", "c da", "c art", "c rm", "c css", "c cms", "c panel", "c analyzer", "d id", "d http", "d ing", "d ba", "d ns", "d pr", "d ress", "d tid", "d ruid", "e f", "e cu", "e cgi", "e per", "e confirm", "e DB", "f b", "f d", "f y", "f er", "f ri", "f act", "f name", "f all", "f ull", "g w", "g ad", "g ap", "g up", "g ue", "g ments", "g ress", "g reen", "g lob", "h sp", "h ls", "h and", "h ref", "h anced", "h icle", "h maps", "i a", "i e", "i ty", "i ed", "i be", "i wc", "i lities", "j b", "j player", "j cml", "k u", "k v", "k in", "k ub", "k ery", "k ings", "l l", "l on", "l at", "l ms", "l ast", "m F", "m c", "m er", "m str", "m ul", "m gt", "m viewer", "m mur", "n V", "n g", "n i", "n m", "n se", "n web", "n ance", "n Msg", "o f", "o em", "o ld", "p H", "p f", "p ent", "p pro", "p bW", "p Info", "p Alive", "q cu", "q mc", "r s", "r ad", "r st", "r at", "r sv", "r dP", "r Ext", "s st", "s pl", "s um", "s am", "s ac", "s ition", "t n", "t in", "t pl", "t ut", "u g", "u le", "u ms", "u ster", "v x", "v ate", "v ul", "v bm", "v Code", "w ar", "w el", "w ms", "w fo", "w ard", "w ls", "w By", "w secure", "w vc", "x aml", "y g", "y o", "y u", "y ns", "y be", "y ous", "z b", "z i", "z m", "z lo", "z ion", "z ab", "z ul", "z ip", "z aX", "z gz", "z one", "{ '", "} \"", "\u00e9 \u012e", "\u0120 \"", "\u0120 5", "in f", "in post", "in put", "in format", "\u0120/ ../../../../../../../../", "er net", "er Value", "nt h", "nt p", "do n", "do ns", "do ku", "on ar", "on ob", "on click", "me s", "me t", "me tr", "me chan", "me tri", "ri ca", "ri mg", "php fa", "php mail", "php my", "ad ata", "ad dons", "pt cha", "sc p", "sc an", "sc reen", "al s", "al th", "st re", "st ate", "st age", "st af", "st cache", "st API", "st rea", "ma ker", "ma sta", "ma ybe", "re sto", "re nc", "re vs", "re gex", "re cent", "re place", "et y", "et Ma", "pa id", "pa use", "pa rt", "pa sst", "or er", "or ter", "co me", "co ur", "co ding", "ss ary", "le g", "le metr", "lo c", "lo ssary", "cu be", "cu rity", "wp da", "wp base", "wp job", "wp solr", "wp car", "min g", "min io", "ST ATE", "ST ER", "admin s", "admin api", "alert Light", "22 2", "22 8", "20 22", "20 20", "20 32", "main te", "document or", "document cloud", "de nt", "de de", "de sk", "de ploy", "pl er", "pl ID", "pl orer", "fi c", "ar ty", "ar price", "}} \\", "}} {{", "}} )%", "}} /?", "}} *{{", "}} :${", "se l", "se gments", "act er", "an ge", "ser ial", "plugin script", "te d", "te x", "te ct", "te ams", "te lemetr", "ch i", "ch ed", "ch amp", "ur ations", "27 10", "id c", "ter n", "ter ep", "na vis", "li de", "li ce", "li miter", "file view", "file server", "file Read", "ap e", "// ../", "29 86", "etc fg", "page d", "page builder", "ja sp", "28 123", "vi v", "vi ty", "vi es", "vi eDB", "up dat", "00 3", "00 07", "gi ari", "ut c", "ut h", "ut ilities", "en v", "en hanced", "url Path", "tp ro", "25 0", "25 252", "25 77", "http d", "con omy", "name s", "name spaces", "ajax GetFile", "ck et", "ck ets", "ck editor", "str act", "str ap", "ml a", "get page", "get De", "get Fa", "get Gfi", "get Map", "user files", "mo ve", "mo nth", "mo vies", "cgi t", "il der", "il Plugin", "index er", ":// %", "el lect", "ba sh", "ba uth", "po si", "po sition", "pro files", "pro gress", "pro tect", "it s", "it ch", "it ter", "it is", "ra ce", "ra ft", "read y", "read er", "read sheet", "un ity", "un serial", "search Type", "search string", "search Term", "ex pre", "ex plorer", "for ums", "for ward", "th ru", "ass et", "ass ist", "ass ess", "ass ig", "../../../../../../../../ ../../../../../../../../../../../", "ic MethodAccess", "web call", "web services", "com bin", "com pli", "com plet", "com pany", "error s", ">< !", "der erValue", "es press", "log file", "log File", "log files", "img download", "img Process", "SE CUR", "um ns", "ve lo", "ve hicle", "sy n", "sy stic", "ul ar", "am ty", "cl uster", "type s", "si Zy", "CT CWeb", "fa re", "fa vicon", "ard s", "auth ori", "html awed", "da v", "da y", "ed in", "ed ms", "Na v", "back gro", "no data", "to do", "to ut", "to tal", "ti ki", "ti pg", "ti ckets", "va ri", "ile App", "jsp s", "dit ion", "dit Tra", "=/ ../../../../", "=/ ../../../", "data Id", "33 4", "ho ts", "post s", "op le", "sv c", "sv nweb", "server manager", "server Config", "form W", "bo af", "bo ts", "iz z", "ey J", "ey e", "Ser vers", "pre m", "Re al", "Re direct", "Re stAPI", "mi ssion", "ne e", "ne ct", "tab bed", "mail ster", "mail brand", "File name", "File Servlet", "File Path", "File Tree", "image map", "image dir", ")) }}", "us rimg", "let ter", "sp ip", "sp readsheet", "In st", "In voker", "In fusionsoft", "redirect or", "class ifi", "74 064", "Se curity", "ca st", "ca se", "ca ptcha", "ob j", "sto res", "ult s", "ow a", "sub script", "sub domain", "sub action", "sub mask", "source af", "/.. ;", "/.. \\..\\..\\", "ta x", "ta ke", "session id", "tem p", "quest ion", "work ing", "gn l", "per fs", "per ks", "sa ml", "sa fe", "255 7", "cs f", "add ress", "10 10", "ay too", "ns look", "Id x", "User s", "User Name", "call Anon", "pi g", "pi x", "RE GI", "RE FRES", "ws at", "ws gi", "res in", "fil l", "hel per", "is form", "text are", "site s", "site core", "backup mgt", "&_ =", "he ad", "he at", "he art", "if est", "\u0120/_ _", "dashboard Id", "=\" %", "Pro xy", "Pro vCode", "ist ory", "check out", "21 8", "21 417", "21 2986", "Ad dress", "By Path", "go any", "je ction", "gener ate", "gener ic", "comm unity", "Login Page", "ON E", "St ate", "aw ay", "my sql", "os m", "col lect", "col umns", "custom er", "face book", "host Sign", "16 769", "Res ults", "bi a", "bi x", "fe e", "over view", "pri cing", "wh izz", "50 574", "=' )%", "=\">< /", "SS AGE", "SS WOR", "tm pl", "report resource", "}}' %", "}}' )", "}}' };", "show case", "open cms", "package s", "Web Servlet", "dy n", "foo dba", "pub lish", "wd D", "wd seo", "wd Ggg", "we chat", "we ight", "we eper", "we bauth", "member s", "member hero", "rest ler", "active helper", "conne ction", "node Filter", "node FilteringType", "time out", "AR QB", "AR HJ", "Con nect", "MS At", "Sy nc", "profile Idx", "xxxx xxx", "Admin istrator", "AG M", "Get Image", "Get Ph", "job Filter", "job FilteringType", "sup pli", "sup systic", "update s", "Server Settings", "access key", "buil t", "graph api", "graph ql", "registr y", "registr ar", "Ma il", "Ma conomy", "PH ONE", "WHE N", "sk in", "short view", "pop ular", "Log Service", "create d", "() }", "() )%", "() ),", "/../../../../../../../../ ../", "/../../../../../../../../ ../../../../", "/../../../../../../../../ ../../../../../../../../", "/../../../../../../../../ ../../../../../../../../../../../", "30 45", "34 5", "AD o", "AP PL", "Ex ecu", "Int ellect", "ib it", "sn mp", "sw itch", "uri fic", "rix ia", "mag pie", "cur renc", "Config uration", "=$ {", "For m", "ME C", "ME NT", "ME SSAGE", "No de", "wid th", "man ger", "man ifest", "pay ment", "propert y", "Com mand", "Com plet", "feed back", "68 2", "Di ag", "Man age", "ant i", "jx pbW", "simple blog", "ure proxy", "remo terep", "ors File", "live help", "sys log", "authentic ation", "oper ator", "keyword s", "\") }}?", "44 122", "AB LE", "AB AB", "DE SC", "item id", "ket place", "sm tp", "contact Id", "mod s", "mod validate", "able s", "Reader No", "link edin", "register ed", "19 2", "Bu ilder", "Mo de", "Mo dule", "Mo vieDB", "Str ategy", "Up grade", "YW Rta", "dra g", "deta il", "tra ce", "tra ffi", "wi cket", "par si", "geo json", "seo matic", "asy nc", "sym posi", "Report ing", "Report Viewer", "}}/_ /%", "Process Wait", "Process Builder", "Method Execu", "nagios ql", "snapshot s", "={ %", "Ajx Msg", "Ajx Keys", "IC Jj", "Im port", "PA NY", "PA SSWOR", "Port Type", "bad ge", "bad ging", "bad bots", "ele ments", "know age", "pm b", "pm pro", "vs an", "online Preview", "photo xh", "mar ketplace", "pass ing", "pla giari", "}}; {", "range Un", "fail ure", "mime only", "Auto discover", "build ing", "mobile app", "\", \"", "10000 000", "== ?", "Au dio", "Au ditTra", "Ass etMa", "Ca pability", "FF FF", "Hel per", "Jj PT", "OC Bnc", "TP AGE", "The MovieDB", "boot strap", "cg c", "cam bia", "hi gh", "pj Action", "woo cs", "woo commerce", "\u0120/.. \\..\\..\\..\\..\\..\\..\\..\\..", "reg ions", "pat tern", "minim al", "descript ion", "secre ts", "281 26", "oooo oooo", "cause Filter", "cause FilteringType", "AAAA AA", "tool bar", "tool tipg", "Stat us", "Stat icMethodAccess", "diagno stic", "CSCO T", "',' -", "Download Path", "launcher Filter", "launcher FilteringType", "39 50", "56 212986", "AI L", "AV gB", "CR g", "COM PLETE", "COM PANY", "EM AIL", "Is ICJj", "Net Bib", "Un known", "Zm Msg", "Zm Keys", "[] {'", "ava il", "bt n", "cy cle", "cert s", "acti vity", "chr on", "dis mi", "getC orsFile", "top ic", "=../../../../../../../../../../../../ ../../../", "queue s", "queue log", "person al", "pict ures", "pict ureproxy", "Provider Name", "aaaaaaaa aaaa", "draft ID", "MethodAccess or", "Iiwg Ii", "Iiwg Im", "Template Msg", "Wait Duration", "!-- &", ")- %", ")\">< /", "+--+ &", "54 50", "=.. &", "CA SE", "Cat alog", "CMS Pages", "En gine", "SQ L", "crypt o", "dC Jd", "dk IiwgIm", "fan cy", "gu ard", "hu man", "iss ue", "ipe cs", "jk status", "jquery FileTree", "mx person", "nets weeper", "ope nam", "offi cial", "pP j", "rw servlet", "sq li", "sma rt", "tt f", "tw itter", "inte gr", "invi te", "doc DownloadPath", "allow StaticMethodAccess", "stop badbots", "pagin ation", "lead s", "208 682", "dec orator", "design er", "deny MethodExecu", "}}\") }}.", "serv ProvCode", "roy al", "give away", "091 21417", "pretty urls", "Regi str", "Remote Search", "news letter", "final url", "subscri ber", "/..../ /..../", "feat urific", "membership s", "Char acter", "PHN jcml", "destin ation", "track r", "Appl ication", "campaign Id", "monit or", "notifi cations", "QueryComponent Ren", "Adapter HTTP", "DOMAIN ID", "Printer List", "constru ctor", "'} )).", "523 00", "AH Y", "Aaw B", "BC C", "BLE FT", "BTO GGL", "BBO TT", "Brow se", "Cr umb", "Cu stom", "Den ied", "Deb ug", "Dash board", "Dial og", "Deta ils", "EL SE", "Fo und", "Fimg ur", "Flexible Assets", "Hook s", "Kee pAlive", "LO AD", "Mob ileApp", "Micro Strategy", "Po licy", "PAT CH", "PAR AM", "POB atch", "ROO T", "Sa ve", "SAPI rExt", "Time out", "THE N", "Vers ion", "We alth", "Wee ks", "Zd Msg", "ZGV wdGgg", "ah rixia", "apa che", "bul k", "bang resto", "cst ecgi", "cfi de", "cro wd", "csr f", "cfo m", "cda ily", "cpanel webcall", "fri end", "fall back", "gw yns", "gad get", "gup py", "gue st", "glob al", "hand le", "hmaps prem", "ibe CRg", "kub ernet", "lon g", "mstr Web", "mul ti", "mmur sp", "pent aho", "ppro f", "qcu bed", "rat ing", "rsv p", "rdP arty", "sam pler", "tin y", "vx cf", "wel come", "yous aytoo", "zab bix", "zaX plID", "\u00e9\u012e \u00a6", "informat ion", "onob w", "metri cs", "phpfa stcache", "phpmail er", "phpmy admin", "stre et", "stage show", "staf f", "strea ming", "revs lider", "regex Check", "passt h", "wpjob board", "wpcar go", "alertLight box", "2032 11", "mainte nance", "}}:${ %", "telemetr y", "urations General", "jasp er", "ajaxGetFile ByPath", "getFa vicon", "getGfi Upgrade", "getMap Img", "move itis", "unserial ize", "expre ssion", "thru k", "assist ant", "assess ment", "assig nee", "compli ance", "espress o", "SECUR ITY", "siZy IsICJj", "CTCWeb Service", "authori ze", "backgro und", "hots pot", "svnweb client", "serverConfig urationsGeneral", "boaf rm", "mailbrand settings", "Invoker Servlet", "classifi ed", "sourceaf rica", "perfs onar", "nslook up", "REGI STER", "REFRES H", "textare a", "goany where", "foodba kery", "MSAt ZGVwdGgg", "GetPh pInfo", "APPL Y", "currenc y", "jxpbW cgc", "remoterep orter", "44122 00", "YWRta W", "traffi canalyzer", "symposi um", "PASSWOR D", "photoxh ibit", "plagiari sm", "rangeUn its", "AuditTra ilPlugin", "AssetMa ker", "OCBnc mF", "high light", "tooltipg lossary", "56212986 74064", "NetBib lio", "pictures Preview", "dCJd XQ", "denyMethodExecu tion", "09121417 5450", "PHNjcml wdD", "QueryComponentRen dererValue", "BTOGGL ABLE", "BBOTT OM", "MobileApp List", "SAPIrExt Help", "Wealth T", "kubernet es", "rdParty Servers", "zaXplID F", "getGfiUpgrade File", "moveitis api", "siZyIsICJj b", "MSAtZGVwdGgg OCBncmF"], "model_max_length": 256}}